
#ifdef __has_attribute
#define HAVE_ATTRIBUTE(x) __has_attribute(x)
#else
#define HAVE_ATTRIBUTE(x) 0
#endif
#if HAVE_ATTRIBUTE(aligned) || (defined(__GNUC__) && !defined(__clang__))
#define DATA_ALIGN_ATTRIBUTE __attribute__((aligned(4)))
#else
#define DATA_ALIGN_ATTRIBUTE
#endif

const unsigned char model_data[] DATA_ALIGN_ATTRIBUTE = {
	0x1c, 0x00, 0x00, 0x00, 0x54, 0x46, 0x4c, 0x33, 0x14, 0x00, 0x20, 0x00, 
	0x04, 0x00, 0x08, 0x00, 0x0c, 0x00, 0x10, 0x00, 0x14, 0x00, 0x00, 0x00, 
	0x18, 0x00, 0x1c, 0x00, 0x14, 0x00, 0x00, 0x00, 0x03, 0x00, 0x00, 0x00, 
	0x18, 0x00, 0x00, 0x00, 0x1c, 0x00, 0x00, 0x00, 0xc0, 0x00, 0x00, 0x00, 
	0x1c, 0x00, 0x00, 0x00, 0x68, 0x00, 0x00, 0x00, 0x60, 0x00, 0x00, 0x00, 
	0x01, 0x00, 0x00, 0x00, 0x70, 0x04, 0x00, 0x00, 0x01, 0x00, 0x00, 0x00, 
	0xc8, 0x00, 0x00, 0x00, 0x12, 0x00, 0x00, 0x00, 0x2c, 0x14, 0x00, 0x00, 
	0x28, 0x14, 0x00, 0x00, 0x34, 0x13, 0x00, 0x00, 0x80, 0x12, 0x00, 0x00, 
	0xd8, 0x11, 0x00, 0x00, 0x30, 0x11, 0x00, 0x00, 0xc4, 0x10, 0x00, 0x00, 
	0x54, 0x10, 0x00, 0x00, 0x00, 0x0e, 0x00, 0x00, 0xac, 0x09, 0x00, 0x00, 
	0x58, 0x05, 0x00, 0x00, 0xc4, 0x04, 0x00, 0x00, 0xfc, 0x13, 0x00, 0x00, 
	0xf8, 0x13, 0x00, 0x00, 0xf4, 0x13, 0x00, 0x00, 0xf0, 0x13, 0x00, 0x00, 
	0xec, 0x13, 0x00, 0x00, 0x3c, 0x00, 0x00, 0x00, 0x00, 0x00, 0x00, 0x00, 
	0x01, 0x00, 0x00, 0x00, 0x0c, 0x00, 0x00, 0x00, 0x08, 0x00, 0x0c, 0x00, 
	0x04, 0x00, 0x08, 0x00, 0x08, 0x00, 0x00, 0x00, 0x08, 0x00, 0x00, 0x00, 
	0x11, 0x00, 0x00, 0x00, 0x13, 0x00, 0x00, 0x00, 0x6d, 0x69, 0x6e, 0x5f, 
	0x72, 0x75, 0x6e, 0x74, 0x69, 0x6d, 0x65, 0x5f, 0x76, 0x65, 0x72, 0x73, 
	0x69, 0x6f, 0x6e, 0x00, 0x4a, 0xed, 0xff, 0xff, 0x04, 0x00, 0x00, 0x00, 
	0x10, 0x00, 0x00, 0x00, 0x31, 0x2e, 0x35, 0x2e, 0x30, 0x00, 0x00, 0x00, 
	0x00, 0x00, 0x00, 0x00, 0x00, 0x00, 0x00, 0x00, 0x0f, 0x00, 0x00, 0x00, 
	0x4d, 0x4c, 0x49, 0x52, 0x20, 0x43, 0x6f, 0x6e, 0x76, 0x65, 0x72, 0x74, 
	0x65, 0x64, 0x2e, 0x00, 0x00, 0x00, 0x0e, 0x00, 0x18, 0x00, 0x04, 0x00, 
	0x08, 0x00, 0x0c, 0x00, 0x10, 0x00, 0x14, 0x00, 0x0e, 0x00, 0x00, 0x00, 
	0x14, 0x00, 0x00, 0x00, 0x54, 0x00, 0x00, 0x00, 0x58, 0x00, 0x00, 0x00, 
	0x5c, 0x00, 0x00, 0x00, 0x70, 0x00, 0x00, 0x00, 0x10, 0x00, 0x00, 0x00, 
	0x08, 0x13, 0x00, 0x00, 0x98, 0x12, 0x00, 0x00, 0xf4, 0x11, 0x00, 0x00, 
	0x4c, 0x11, 0x00, 0x00, 0xa4, 0x10, 0x00, 0x00, 0xfc, 0x0f, 0x00, 0x00, 
	0xa8, 0x0f, 0x00, 0x00, 0x34, 0x0f, 0x00, 0x00, 0xe0, 0x0c, 0x00, 0x00, 
	0x8c, 0x08, 0x00, 0x00, 0x38, 0x04, 0x00, 0x00, 0x68, 0x03, 0x00, 0x00, 
	0x74, 0x02, 0x00, 0x00, 0xa4, 0x01, 0x00, 0x00, 0xe4, 0x00, 0x00, 0x00, 
	0x68, 0x00, 0x00, 0x00, 0x01, 0x00, 0x00, 0x00, 0x00, 0x00, 0x00, 0x00, 
	0x01, 0x00, 0x00, 0x00, 0x0f, 0x00, 0x00, 0x00, 0x05, 0x00, 0x00, 0x00, 
	0xe8, 0x02, 0x00, 0x00, 0x18, 0x02, 0x00, 0x00, 0x48, 0x01, 0x00, 0x00, 
	0x88, 0x00, 0x00, 0x00, 0x10, 0x00, 0x00, 0x00, 0x04, 0x00, 0x00, 0x00, 
	0x6d, 0x61, 0x69, 0x6e, 0x00, 0x00, 0x00, 0x00, 0x12, 0xfe, 0xff, 0xff, 
	0x00, 0x00, 0x00, 0x08, 0x18, 0x00, 0x00, 0x00, 0x0c, 0x00, 0x00, 0x00, 
	0x04, 0x00, 0x00, 0x00, 0x3c, 0xed, 0xff, 0xff, 0x01, 0x00, 0x00, 0x00, 
	0x0f, 0x00, 0x00, 0x00, 0x03, 0x00, 0x00, 0x00, 0x0e, 0x00, 0x00, 0x00, 
	0x0a, 0x00, 0x00, 0x00, 0x05, 0x00, 0x00, 0x00, 0xb0, 0xed, 0xff, 0xff, 
	0x14, 0x00, 0x00, 0x00, 0x10, 0x00, 0x00, 0x00, 0x18, 0x00, 0x00, 0x00, 
	0x30, 0x00, 0x00, 0x00, 0x20, 0x00, 0x00, 0x00, 0x02, 0x00, 0x00, 0x00, 
	0x01, 0x00, 0x00, 0x00, 0x01, 0x00, 0x00, 0x00, 0x08, 0x00, 0x00, 0x00, 
	0x49, 0x64, 0x65, 0x6e, 0x74, 0x69, 0x74, 0x79, 0x00, 0x00, 0x00, 0x00, 
	0x02, 0x00, 0x00, 0x00, 0xff, 0xff, 0xff, 0xff, 0x01, 0x00, 0x00, 0x00, 
	0x98, 0xed, 0xff, 0xff, 0x86, 0xfe, 0xff, 0xff, 0x00, 0x00, 0x00, 0x08, 
	0x1c, 0x00, 0x00, 0x00, 0x10, 0x00, 0x00, 0x00, 0x04, 0x00, 0x00, 0x00, 
	0xaa, 0xfd, 0xff, 0xff, 0x00, 0x00, 0x00, 0x01, 0x01, 0x00, 0x00, 0x00, 
	0x0e, 0x00, 0x00, 0x00, 0x03, 0x00, 0x00, 0x00, 0x0d, 0x00, 0x00, 0x00, 
	0x09, 0x00, 0x00, 0x00, 0x04, 0x00, 0x00, 0x00, 0x28, 0xee, 0xff, 0xff, 
	0x14, 0x00, 0x00, 0x00, 0x0f, 0x00, 0x00, 0x00, 0x18, 0x00, 0x00, 0x00, 
	0x74, 0x00, 0x00, 0x00, 0x64, 0x00, 0x00, 0x00, 0x02, 0x00, 0x00, 0x00, 
	0x01, 0x00, 0x00, 0x00, 0x10, 0x00, 0x00, 0x00, 0x4c, 0x00, 0x00, 0x00, 
	0x73, 0x65, 0x71, 0x75, 0x65, 0x6e, 0x74, 0x69, 0x61, 0x6c, 0x2f, 0x64, 
	0x65, 0x6e, 0x73, 0x65, 0x5f, 0x33, 0x2f, 0x4d, 0x61, 0x74, 0x4d, 0x75, 
	0x6c, 0x3b, 0x73, 0x65, 0x71, 0x75, 0x65, 0x6e, 0x74, 0x69, 0x61, 0x6c, 
	0x2f, 0x64, 0x65, 0x6e, 0x73, 0x65, 0x5f, 0x33, 0x2f, 0x52, 0x65, 0x6c, 
	0x75, 0x3b, 0x73, 0x65, 0x71, 0x75, 0x65, 0x6e, 0x74, 0x69, 0x61, 0x6c, 
	0x2f, 0x64, 0x65, 0x6e, 0x73, 0x65, 0x5f, 0x33, 0x2f, 0x42, 0x69, 0x61, 
	0x73, 0x41, 0x64, 0x64, 0x00, 0x00, 0x00, 0x00, 0x02, 0x00, 0x00, 0x00, 
	0xff, 0xff, 0xff, 0xff, 0x10, 0x00, 0x00, 0x00, 0x54, 0xee, 0xff, 0xff, 
	0x42, 0xff, 0xff, 0xff, 0x00, 0x00, 0x00, 0x08, 0x1c, 0x00, 0x00, 0x00, 
	0x10, 0x00, 0x00, 0x00, 0x04, 0x00, 0x00, 0x00, 0x66, 0xfe, 0xff, 0xff, 
	0x00, 0x00, 0x00, 0x01, 0x01, 0x00, 0x00, 0x00, 0x0d, 0x00, 0x00, 0x00, 
	0x03, 0x00, 0x00, 0x00, 0x0c, 0x00, 0x00, 0x00, 0x08, 0x00, 0x00, 0x00, 
	0x03, 0x00, 0x00, 0x00, 0xe4, 0xee, 0xff, 0xff, 0x14, 0x00, 0x00, 0x00, 
	0x0e, 0x00, 0x00, 0x00, 0x18, 0x00, 0x00, 0x00, 0x74, 0x00, 0x00, 0x00, 
	0x64, 0x00, 0x00, 0x00, 0x02, 0x00, 0x00, 0x00, 0x01, 0x00, 0x00, 0x00, 
	0x10, 0x00, 0x00, 0x00, 0x4c, 0x00, 0x00, 0x00, 0x73, 0x65, 0x71, 0x75, 
	0x65, 0x6e, 0x74, 0x69, 0x61, 0x6c, 0x2f, 0x64, 0x65, 0x6e, 0x73, 0x65, 
	0x5f, 0x32, 0x2f, 0x4d, 0x61, 0x74, 0x4d, 0x75, 0x6c, 0x3b, 0x73, 0x65, 
	0x71, 0x75, 0x65, 0x6e, 0x74, 0x69, 0x61, 0x6c, 0x2f, 0x64, 0x65, 0x6e, 
	0x73, 0x65, 0x5f, 0x32, 0x2f, 0x52, 0x65, 0x6c, 0x75, 0x3b, 0x73, 0x65, 
	0x71, 0x75, 0x65, 0x6e, 0x74, 0x69, 0x61, 0x6c, 0x2f, 0x64, 0x65, 0x6e, 
	0x73, 0x65, 0x5f, 0x32, 0x2f, 0x42, 0x69, 0x61, 0x73, 0x41, 0x64, 0x64, 
	0x00, 0x00, 0x00, 0x00, 0x02, 0x00, 0x00, 0x00, 0xff, 0xff, 0xff, 0xff, 
	0x10, 0x00, 0x00, 0x00, 0x0c, 0xf0, 0xff, 0xff, 0x00, 0x00, 0x0e, 0x00, 
	0x14, 0x00, 0x00, 0x00, 0x08, 0x00, 0x0c, 0x00, 0x07, 0x00, 0x10, 0x00, 
	0x0e, 0x00, 0x00, 0x00, 0x00, 0x00, 0x00, 0x08, 0x1c, 0x00, 0x00, 0x00, 
	0x10, 0x00, 0x00, 0x00, 0x04, 0x00, 0x00, 0x00, 0x32, 0xff, 0xff, 0xff, 
	0x00, 0x00, 0x00, 0x01, 0x01, 0x00, 0x00, 0x00, 0x0c, 0x00, 0x00, 0x00, 
	0x03, 0x00, 0x00, 0x00, 0x0b, 0x00, 0x00, 0x00, 0x07, 0x00, 0x00, 0x00, 
	0x02, 0x00, 0x00, 0x00, 0xb0, 0xef, 0xff, 0xff, 0x14, 0x00, 0x00, 0x00, 
	0x0d, 0x00, 0x00, 0x00, 0x18, 0x00, 0x00, 0x00, 0x74, 0x00, 0x00, 0x00, 
	0x64, 0x00, 0x00, 0x00, 0x02, 0x00, 0x00, 0x00, 0x01, 0x00, 0x00, 0x00, 
	0x10, 0x00, 0x00, 0x00, 0x4c, 0x00, 0x00, 0x00, 0x73, 0x65, 0x71, 0x75, 
	0x65, 0x6e, 0x74, 0x69, 0x61, 0x6c, 0x2f, 0x64, 0x65, 0x6e, 0x73, 0x65, 
	0x5f, 0x31, 0x2f, 0x4d, 0x61, 0x74, 0x4d, 0x75, 0x6c, 0x3b, 0x73, 0x65, 
	0x71, 0x75, 0x65, 0x6e, 0x74, 0x69, 0x61, 0x6c, 0x2f, 0x64, 0x65, 0x6e, 
	0x73, 0x65, 0x5f, 0x31, 0x2f, 0x52, 0x65, 0x6c, 0x75, 0x3b, 0x73, 0x65, 
	0x71, 0x75, 0x65, 0x6e, 0x74, 0x69, 0x61, 0x6c, 0x2f, 0x64, 0x65, 0x6e, 
	0x73, 0x65, 0x5f, 0x31, 0x2f, 0x42, 0x69, 0x61, 0x73, 0x41, 0x64, 0x64, 
	0x00, 0x00, 0x00, 0x00, 0x02, 0x00, 0x00, 0x00, 0xff, 0xff, 0xff, 0xff, 
	0x10, 0x00, 0x00, 0x00, 0xd8, 0xf0, 0xff, 0xff, 0x00, 0x00, 0x0e, 0x00, 
	0x16, 0x00, 0x00, 0x00, 0x08, 0x00, 0x0c, 0x00, 0x07, 0x00, 0x10, 0x00, 
	0x0e, 0x00, 0x00, 0x00, 0x00, 0x00, 0x00, 0x08, 0x24, 0x00, 0x00, 0x00, 
	0x18, 0x00, 0x00, 0x00, 0x0c, 0x00, 0x00, 0x00, 0x00, 0x00, 0x06, 0x00, 
	0x08, 0x00, 0x07, 0x00, 0x06, 0x00, 0x00, 0x00, 0x00, 0x00, 0x00, 0x01, 
	0x01, 0x00, 0x00, 0x00, 0x0b, 0x00, 0x00, 0x00, 0x03, 0x00, 0x00, 0x00, 
	0x00, 0x00, 0x00, 0x00, 0x06, 0x00, 0x00, 0x00, 0x01, 0x00, 0x00, 0x00, 
	0x0c, 0x00, 0x10, 0x00, 0x0b, 0x00, 0x00, 0x00, 0x0c, 0x00, 0x04, 0x00, 
	0x0c, 0x00, 0x00, 0x00, 0x09, 0x00, 0x00, 0x00, 0x00, 0x00, 0x00, 0x09, 
	0x01, 0x00, 0x00, 0x00, 0xa0, 0xf0, 0xff, 0xff, 0x14, 0x00, 0x00, 0x00, 
	0x0c, 0x00, 0x00, 0x00, 0x18, 0x00, 0x00, 0x00, 0x6c, 0x00, 0x00, 0x00, 
	0x5c, 0x00, 0x00, 0x00, 0x02, 0x00, 0x00, 0x00, 0x01, 0x00, 0x00, 0x00, 
	0x08, 0x00, 0x00, 0x00, 0x46, 0x00, 0x00, 0x00, 0x73, 0x65, 0x71, 0x75, 
	0x65, 0x6e, 0x74, 0x69, 0x61, 0x6c, 0x2f, 0x64, 0x65, 0x6e, 0x73, 0x65, 
	0x2f, 0x4d, 0x61, 0x74, 0x4d, 0x75, 0x6c, 0x3b, 0x73, 0x65, 0x71, 0x75, 
	0x65, 0x6e, 0x74, 0x69, 0x61, 0x6c, 0x2f, 0x64, 0x65, 0x6e, 0x73, 0x65, 
	0x2f, 0x52, 0x65, 0x6c, 0x75, 0x3b, 0x73, 0x65, 0x71, 0x75, 0x65, 0x6e, 
	0x74, 0x69, 0x61, 0x6c, 0x2f, 0x64, 0x65, 0x6e, 0x73, 0x65, 0x2f, 0x42, 
	0x69, 0x61, 0x73, 0x41, 0x64, 0x64, 0x00, 0x00, 0x02, 0x00, 0x00, 0x00, 
	0xff, 0xff, 0xff, 0xff, 0x08, 0x00, 0x00, 0x00, 0xc4, 0xf0, 0xff, 0xff, 
	0xba, 0xf1, 0xff, 0xff, 0x04, 0x00, 0x00, 0x00, 0x40, 0x00, 0x00, 0x00, 
	0x7c, 0x3b, 0x86, 0x3e, 0x36, 0xa8, 0xab, 0xbe, 0x51, 0xd0, 0x19, 0x40, 
	0x0e, 0xc8, 0x70, 0xbe, 0x52, 0xd6, 0xfc, 0xbe, 0x3c, 0x82, 0xec, 0xbf, 
	0xde, 0x74, 0x81, 0x3f, 0x75, 0x3b, 0xd5, 0xbf, 0xda, 0xc6, 0x68, 0xbf, 
	0xba, 0x78, 0xa3, 0x3e, 0x86, 0xb0, 0x7c, 0xbe, 0xfc, 0x0f, 0xca, 0x3f, 
	0xf8, 0x1a, 0xfb, 0x3d, 0xe9, 0xd2, 0x56, 0xc0, 0xac, 0x13, 0xbc, 0xbf, 
	0x3e, 0x50, 0x66, 0xbe, 0xd2, 0xf1, 0xff, 0xff, 0x10, 0x00, 0x00, 0x00, 
	0x0b, 0x00, 0x00, 0x00, 0x14, 0x00, 0x00, 0x00, 0x30, 0x00, 0x00, 0x00, 
	0x02, 0x00, 0x00, 0x00, 0x01, 0x00, 0x00, 0x00, 0x10, 0x00, 0x00, 0x00, 
	0x19, 0x00, 0x00, 0x00, 0x73, 0x65, 0x71, 0x75, 0x65, 0x6e, 0x74, 0x69, 
	0x61, 0x6c, 0x2f, 0x64, 0x65, 0x6e, 0x73, 0x65, 0x5f, 0x34, 0x2f, 0x4d, 
	0x61, 0x74, 0x4d, 0x75, 0x6c, 0x00, 0x00, 0x00, 0x54, 0xf1, 0xff, 0xff, 
	0x4a, 0xf2, 0xff, 0xff, 0x04, 0x00, 0x00, 0x00, 0x00, 0x04, 0x00, 0x00, 
	0x54, 0xf9, 0x67, 0xbe, 0xe9, 0x26, 0xf9, 0xbe, 0xb4, 0x3b, 0xdb, 0xbe, 
	0x70, 0x3c, 0x90, 0xbe, 0x96, 0xaf, 0xad, 0xbe, 0x0c, 0x32, 0xf3, 0xbe, 
	0x2b, 0x6b, 0x8e, 0x3e, 0x14, 0x4b, 0xbb, 0xbe, 0xbe, 0x51, 0x6a, 0x3e, 
	0x97, 0x94, 0xc2, 0x3e, 0xff, 0xc9, 0xd6, 0xbe, 0xc5, 0x6e, 0x0c, 0xbd, 
	0x49, 0x85, 0x92, 0xbe, 0x0f, 0x0a, 0x7d, 0x3e, 0xd6, 0xa3, 0x9b, 0x3e, 
	0x60, 0x61, 0xea, 0xbd, 0x86, 0x36, 0xbe, 0xbe, 0xb8, 0xbc, 0x18, 0xbe, 
	0x02, 0x20, 0x3d, 0x3e, 0x31, 0x89, 0xaf, 0x3e, 0xe4, 0xc8, 0xc3, 0x3d, 
	0xd5, 0x17, 0xc8, 0xbe, 0x15, 0x5b, 0xdc, 0x3e, 0x20, 0x56, 0x36, 0xbd, 
	0x20, 0x5d, 0x2f, 0xbd, 0x56, 0x40, 0xaa, 0xbe, 0x26, 0x90, 0x9d, 0xbe, 
	0x2c, 0x12, 0xa3, 0x3d, 0xcf, 0x38, 0x8a, 0xbe, 0x63, 0x77, 0xbc, 0x3e, 
	0x5e, 0x2b, 0x9b, 0xbe, 0x22, 0x28, 0x20, 0xbe, 0xc2, 0x0f, 0x14, 0x3d, 
	0x29, 0x53, 0xda, 0x3e, 0x0c, 0x22, 0x17, 0xbf, 0x00, 0x99, 0x50, 0x3b, 
	0x0a, 0x64, 0xb3, 0xbe, 0xf4, 0xfa, 0xe9, 0xbe, 0x6b, 0x72, 0x75, 0xbe, 
	0xc1, 0x8c, 0xd2, 0x3e, 0x71, 0x68, 0xb8, 0x3e, 0x71, 0x78, 0xff, 0x3e, 
	0x60, 0x43, 0xe8, 0x3c, 0xfe, 0x0e, 0xae, 0x3e, 0x67, 0xd1, 0x6b, 0xc0, 
	0x4f, 0x16, 0x6e, 0xbe, 0x2f, 0x10, 0x18, 0x3e, 0x58, 0xd7, 0x2f, 0x3d, 
	0xd6, 0xc0, 0xc9, 0xbe, 0x2c, 0x0e, 0x1b, 0xbc, 0xd3, 0x32, 0x6e, 0xbe, 
	0xcc, 0xcd, 0xa7, 0x3d, 0x24, 0x0f, 0xe0, 0x3d, 0x41, 0x93, 0xf6, 0x3d, 
	0x7c, 0x98, 0x91, 0xbd, 0x02, 0xc7, 0x5f, 0x3e, 0xe8, 0xf1, 0x3c, 0xbd, 
	0xf9, 0x65, 0x81, 0xbe, 0x2e, 0xe4, 0x9b, 0xbe, 0x00, 0x57, 0xc7, 0x3c, 
	0x90, 0xde, 0xb2, 0x3c, 0xbf, 0xb5, 0x74, 0x3e, 0x6a, 0xff, 0x11, 0xbe, 
	0x7b, 0x45, 0xd9, 0x3e, 0x68, 0x29, 0xde, 0xbd, 0x8c, 0x9b, 0xe3, 0xbd, 
	0x87, 0xa2, 0xb2, 0x3e, 0x32, 0x6b, 0x33, 0xbe, 0x50, 0x0f, 0x58, 0xbd, 
	0x81, 0x8e, 0x82, 0xbe, 0x68, 0xbf, 0x7e, 0xbd, 0x22, 0x7e, 0x2b, 0x3e, 
	0xbe, 0x58, 0x7d, 0x3e, 0xb8, 0xac, 0x13, 0x3d, 0x92, 0x79, 0x63, 0x3e, 
	0xf9, 0x5c, 0xa5, 0x3e, 0xc8, 0x4b, 0x0b, 0xbd, 0xb6, 0xe9, 0xd8, 0xbe, 
	0x58, 0x74, 0x93, 0xbe, 0x8c, 0x5f, 0xb3, 0x3d, 0x09, 0xa3, 0x9d, 0xbd, 
	0xcf, 0x84, 0xa1, 0xbe, 0x61, 0x07, 0x60, 0x3f, 0xe6, 0xb9, 0xb3, 0xbe, 
	0x07, 0xd3, 0x1e, 0x3e, 0x1a, 0xae, 0xda, 0x3e, 0xe8, 0x0f, 0x8b, 0xbe, 
	0x56, 0x3b, 0x0e, 0x3e, 0x5a, 0x54, 0xa2, 0xbf, 0x6d, 0xca, 0x9a, 0xbf, 
	0x3d, 0xaa, 0xaf, 0x3e, 0x55, 0xb4, 0xd7, 0x3e, 0xed, 0x53, 0x82, 0x3f, 
	0x40, 0x8e, 0xa2, 0xbe, 0x56, 0x03, 0xad, 0x3d, 0xdc, 0x7c, 0x0d, 0xbe, 
	0x1c, 0xf7, 0x62, 0x3f, 0x64, 0xe4, 0x08, 0x3f, 0xc5, 0x2c, 0x66, 0x40, 
	0x10, 0x08, 0xa9, 0x3c, 0x1e, 0xf4, 0x35, 0x3e, 0xad, 0x0c, 0x9c, 0x3f, 
	0x85, 0x01, 0xd5, 0x3e, 0x87, 0x48, 0xc4, 0x3e, 0x0a, 0x10, 0xb8, 0x3f, 
	0x46, 0x2f, 0xa4, 0xbf, 0x20, 0x62, 0xa4, 0xbd, 0xbc, 0x2a, 0xf0, 0x3f, 
	0x75, 0xd8, 0x01, 0x3f, 0xd0, 0xd7, 0x86, 0x3f, 0xb3, 0x4c, 0x7c, 0x3f, 
	0x7a, 0xe8, 0x74, 0x3e, 0x57, 0x09, 0x56, 0xbd, 0x05, 0x7a, 0xe0, 0x3e, 
	0xb0, 0xc0, 0x8a, 0xbe, 0xb2, 0x3a, 0x00, 0xbe, 0x90, 0x18, 0x6f, 0xbe, 
	0x06, 0x74, 0xdf, 0xbe, 0x5b, 0x75, 0x86, 0x3e, 0x00, 0xe9, 0xe0, 0xbd, 
	0x64, 0x1d, 0xb9, 0x3d, 0xa9, 0x71, 0x76, 0x3f, 0xfb, 0x50, 0xba, 0x3e, 
	0x36, 0xdd, 0xd7, 0xbe, 0x38, 0x33, 0x31, 0xbf, 0x2b, 0x60, 0x99, 0xbe, 
	0x67, 0xd8, 0x27, 0x3e, 0x6a, 0x33, 0x9a, 0xbe, 0x7d, 0xe4, 0x29, 0xbe, 
	0xe3, 0xf6, 0x08, 0x3e, 0xa6, 0x65, 0x65, 0xbf, 0x20, 0xf3, 0xd5, 0xbc, 
	0xd3, 0xd0, 0x86, 0xbe, 0xf6, 0x4e, 0x52, 0xbd, 0xee, 0xff, 0x9f, 0xbe, 
	0x1c, 0x85, 0xad, 0xbe, 0x3c, 0x29, 0x94, 0xbf, 0x26, 0xbe, 0x1e, 0x3f, 
	0x69, 0x32, 0xd8, 0x3e, 0x9e, 0x31, 0x1f, 0xbe, 0x9e, 0x73, 0xea, 0x3e, 
	0x21, 0x88, 0x76, 0x3c, 0xb4, 0x14, 0x81, 0x3e, 0x1b, 0x9e, 0x92, 0x3e, 
	0xfd, 0xd3, 0x84, 0x3e, 0xbf, 0x88, 0xdb, 0xbe, 0xf0, 0x16, 0xc4, 0xbd, 
	0xe8, 0x9e, 0x4f, 0xbd, 0xb4, 0x6a, 0x9a, 0xbe, 0x8e, 0x6b, 0x82, 0xbe, 
	0xb4, 0x43, 0xdb, 0xbd, 0x32, 0xff, 0x99, 0xbe, 0xbe, 0xa9, 0x0c, 0x3e, 
	0xc4, 0x96, 0x47, 0xbe, 0x97, 0x74, 0x91, 0x3e, 0xdc, 0xe6, 0xd3, 0xbd, 
	0xf8, 0x5e, 0x00, 0xbd, 0x15, 0x8c, 0xcd, 0x3e, 0x30, 0x37, 0x77, 0xbe, 
	0xb2, 0xa7, 0x4b, 0x3e, 0x8c, 0xa6, 0x06, 0xbe, 0x9a, 0xcd, 0xca, 0xbe, 
	0x02, 0x6a, 0x7b, 0x3e, 0x52, 0x45, 0x1b, 0x3e, 0x2e, 0x97, 0x77, 0x3e, 
	0x5a, 0x64, 0x57, 0x3e, 0xc4, 0xbf, 0xa1, 0x3d, 0xeb, 0x70, 0xd9, 0x3e, 
	0x10, 0xb8, 0x95, 0xbe, 0x5c, 0xbb, 0xcb, 0x3d, 0x82, 0x44, 0x4f, 0xbe, 
	0xb8, 0x35, 0xd1, 0xbd, 0xc8, 0x57, 0x10, 0xbd, 0x6f, 0x1f, 0x69, 0xbe, 
	0xec, 0xa1, 0x8f, 0x3d, 0x3c, 0xd3, 0xa6, 0x3d, 0x76, 0x0a, 0x8a, 0x3f, 
	0xc9, 0x42, 0x83, 0x3f, 0x21, 0xb4, 0x86, 0x40, 0xc0, 0x29, 0xb1, 0xbd, 
	0x0c, 0x38, 0x5f, 0x3e, 0x4f, 0x92, 0x87, 0x3f, 0xf4, 0x23, 0xa6, 0x3d, 
	0x5a, 0x09, 0x4b, 0x3e, 0x69, 0x88, 0x7f, 0x3f, 0xab, 0xb7, 0x88, 0xbf, 
	0xd2, 0xb9, 0xd8, 0xbe, 0xee, 0x5f, 0x06, 0x40, 0xa4, 0x42, 0x08, 0xbe, 
	0x21, 0x21, 0x51, 0x3f, 0x7f, 0x5f, 0xfe, 0x3e, 0xfe, 0xc3, 0x87, 0xbe, 
	0x63, 0x6b, 0x8e, 0x3e, 0x90, 0xe5, 0xdc, 0xbe, 0xaa, 0x4f, 0x4e, 0x3e, 
	0xc4, 0xf7, 0x9e, 0x3d, 0x24, 0x61, 0xaa, 0xbe, 0x72, 0x79, 0x55, 0x3e, 
	0x38, 0x6a, 0x1d, 0x3d, 0xf0, 0xbc, 0x81, 0x3c, 0x7b, 0xc2, 0xb8, 0x3e, 
	0x66, 0xd0, 0x11, 0x3e, 0x6b, 0xbe, 0x7e, 0xbe, 0x0f, 0x7c, 0x84, 0x3e, 
	0x34, 0x20, 0xca, 0xbe, 0xe2, 0x0a, 0xb9, 0xbe, 0x00, 0x29, 0xbd, 0xba, 
	0x90, 0x4a, 0xbc, 0xbc, 0xaf, 0xd2, 0xa6, 0x3e, 0xdd, 0x86, 0xd4, 0xbe, 
	0x03, 0xb4, 0xfb, 0x3e, 0x52, 0x1c, 0x0e, 0x3e, 0x46, 0x48, 0xcc, 0x3d, 
	0x61, 0x74, 0x16, 0x3f, 0x6b, 0x89, 0xae, 0x3e, 0xbe, 0x8d, 0x48, 0x3e, 
	0x58, 0x59, 0xc3, 0xbf, 0xf2, 0x40, 0xab, 0xbe, 0xd9, 0xfe, 0xc1, 0x3e, 
	0x33, 0x92, 0xd1, 0x3d, 0x77, 0x3f, 0x87, 0x3f, 0xa3, 0x0f, 0xb2, 0xbe, 
	0x43, 0x2a, 0x39, 0xbe, 0x50, 0x86, 0xbc, 0xbc, 0xf6, 0xe2, 0x12, 0xbe, 
	0xc6, 0x5f, 0x5c, 0x3e, 0x8f, 0x3e, 0x13, 0xbf, 0xa1, 0x17, 0xc8, 0xbe, 
	0x2f, 0xb8, 0x84, 0x3e, 0xd5, 0xe3, 0x55, 0xbe, 0x62, 0xd7, 0xd7, 0xbe, 
	0xd7, 0x21, 0x8e, 0xbe, 0x79, 0xc3, 0xa6, 0xbf, 0xf9, 0xc5, 0x15, 0x3f, 
	0x41, 0x80, 0x94, 0x3e, 0xf9, 0xd4, 0xc2, 0xbe, 0xe1, 0xd9, 0x21, 0x3f, 
	0xa3, 0x27, 0x73, 0xbe, 0x73, 0x11, 0x6b, 0x3e, 0xc0, 0x80, 0xbc, 0xbb, 
	0x8a, 0x91, 0xa7, 0xbe, 0xfa, 0xba, 0x06, 0xbe, 0x20, 0x26, 0x6d, 0x3c, 
	0xc0, 0x1e, 0x7a, 0xbe, 0x40, 0x8a, 0xd1, 0x3c, 0xdb, 0x81, 0x9f, 0xbe, 
	0x24, 0xff, 0x8c, 0x3d, 0x10, 0xbb, 0x0c, 0xbe, 0x31, 0xd4, 0xab, 0x3e, 
	0x04, 0x63, 0x00, 0xbe, 0x80, 0x2f, 0xfe, 0xbb, 0x74, 0xc9, 0xd3, 0xbe, 
	0xd0, 0xb9, 0x89, 0xbe, 0xf4, 0x91, 0xb0, 0xbe, 0x0c, 0xeb, 0xc3, 0xbd, 
	0xbc, 0x73, 0xa2, 0xbd, 0x22, 0xf6, 0xff, 0xff, 0x10, 0x00, 0x00, 0x00, 
	0x0a, 0x00, 0x00, 0x00, 0x14, 0x00, 0x00, 0x00, 0x30, 0x00, 0x00, 0x00, 
	0x02, 0x00, 0x00, 0x00, 0x10, 0x00, 0x00, 0x00, 0x10, 0x00, 0x00, 0x00, 
	0x19, 0x00, 0x00, 0x00, 0x73, 0x65, 0x71, 0x75, 0x65, 0x6e, 0x74, 0x69, 
	0x61, 0x6c, 0x2f, 0x64, 0x65, 0x6e, 0x73, 0x65, 0x5f, 0x33, 0x2f, 0x4d, 
	0x61, 0x74, 0x4d, 0x75, 0x6c, 0x00, 0x00, 0x00, 0xa4, 0xf5, 0xff, 0xff, 
	0x9a, 0xf6, 0xff, 0xff, 0x04, 0x00, 0x00, 0x00, 0x00, 0x04, 0x00, 0x00, 
	0x33, 0x95, 0xcf, 0xbf, 0x4f, 0x7a, 0xd4, 0xbe, 0x69, 0xb3, 0x92, 0x3e, 
	0x3f, 0x86, 0x9f, 0x40, 0xb9, 0x9f, 0xd9, 0x3e, 0xde, 0xa1, 0x6e, 0x3e, 
	0xd3, 0x9f, 0x50, 0xc0, 0xb5, 0x74, 0x0f, 0x40, 0xb7, 0xa7, 0x79, 0x40, 
	0xc0, 0xc7, 0xb2, 0xbb, 0x6f, 0xf6, 0xcb, 0x3e, 0x9c, 0x97, 0x82, 0x3e, 
	0x31, 0x55, 0x82, 0x3e, 0xf8, 0x00, 0x3a, 0xbe, 0xdb, 0x7d, 0xca, 0x3e, 
	0x24, 0x6a, 0xcf, 0xbe, 0x5a, 0x53, 0xf5, 0xbf, 0x9c, 0x83, 0xee, 0x3d, 
	0x90, 0x72, 0xb2, 0xbd, 0xc8, 0xd0, 0x9c, 0x40, 0xef, 0x29, 0xa0, 0x3e, 
	0xc0, 0x91, 0x6a, 0xbc, 0xe0, 0x2d, 0x55, 0xc0, 0x7b, 0x67, 0xc4, 0x3f, 
	0x98, 0x30, 0x79, 0x40, 0xf4, 0xc3, 0xb0, 0xbe, 0x80, 0x08, 0x94, 0xbb, 
	0xb3, 0xdb, 0x02, 0x3f, 0x29, 0x0f, 0x25, 0x3f, 0x09, 0x95, 0x90, 0x3e, 
	0x44, 0x64, 0xa0, 0xbe, 0x7a, 0xe6, 0x08, 0xbe, 0xa4, 0xc5, 0xf0, 0xbf, 
	0xf1, 0x87, 0xac, 0x3e, 0x30, 0x1f, 0x86, 0xbe, 0x6f, 0xf9, 0xa4, 0x40, 
	0x90, 0xed, 0xba, 0xbc, 0xd7, 0x9b, 0xa7, 0x3e, 0x8b, 0xd9, 0x49, 0xc0, 
	0xf2, 0xd5, 0x11, 0x40, 0x22, 0x9f, 0x6f, 0x40, 0x00, 0x50, 0xdd, 0xbc, 
	0x22, 0x7a, 0x10, 0x3e, 0x66, 0x99, 0xaa, 0x3e, 0x8f, 0x28, 0x7a, 0xbe, 
	0x01, 0x45, 0xa2, 0xbe, 0x41, 0xfd, 0x9b, 0x3e, 0xb3, 0x24, 0x89, 0x3e, 
	0x63, 0x40, 0xcd, 0xbe, 0x76, 0x91, 0x0a, 0x3e, 0xd0, 0x4f, 0x9c, 0xbc, 
	0xd0, 0x9e, 0x17, 0x3d, 0x92, 0x81, 0x3e, 0xbe, 0x6c, 0x5e, 0xf1, 0x3d, 
	0x8d, 0x22, 0x92, 0xbe, 0x1b, 0xae, 0x8a, 0x3e, 0xc7, 0x3a, 0x51, 0xbe, 
	0x70, 0x83, 0xf9, 0xbd, 0x0c, 0x5e, 0xda, 0xbe, 0xe0, 0xf6, 0x3c, 0x3c, 
	0xb4, 0x73, 0xc6, 0xbe, 0x9c, 0x89, 0x37, 0xbe, 0x52, 0xc8, 0x33, 0x3e, 
	0x17, 0xf0, 0xcf, 0x3e, 0xc2, 0x39, 0xae, 0xbe, 0xd2, 0x78, 0x42, 0x3e, 
	0xe8, 0x78, 0x87, 0x3d, 0xb8, 0x23, 0x26, 0x3e, 0x99, 0xdd, 0x91, 0x3e, 
	0x0d, 0xef, 0x3d, 0xbe, 0x40, 0xbe, 0xae, 0x3d, 0xdb, 0xde, 0x6f, 0xbd, 
	0xe6, 0xdd, 0x40, 0xbe, 0x11, 0x08, 0xdd, 0x3e, 0x20, 0x40, 0xc6, 0xbd, 
	0xc2, 0x6e, 0x79, 0xbd, 0x16, 0xb4, 0xb8, 0xbe, 0x3e, 0xd5, 0x22, 0xbe, 
	0x80, 0x82, 0x99, 0x3b, 0x2e, 0xf9, 0x6d, 0x3e, 0x06, 0xc9, 0xd8, 0xbf, 
	0x46, 0x2f, 0x0a, 0x3e, 0x6c, 0xf5, 0xae, 0xbd, 0x85, 0x7f, 0x8c, 0x40, 
	0x74, 0xa5, 0xfd, 0xbd, 0x38, 0x51, 0x86, 0xbd, 0x33, 0xa1, 0x45, 0xc0, 
	0x23, 0x7b, 0x49, 0x40, 0x5b, 0xfd, 0x8f, 0x40, 0xf7, 0xcb, 0x99, 0x3e, 
	0x92, 0xa6, 0xbf, 0xbe, 0xb6, 0x30, 0xdd, 0x3e, 0xad, 0xab, 0xc8, 0xbe, 
	0x24, 0xb1, 0xcc, 0xbe, 0x38, 0xb7, 0x24, 0x3d, 0x90, 0xd4, 0x01, 0xbe, 
	0x06, 0x05, 0x3e, 0x3e, 0x1d, 0x8b, 0xaf, 0xbe, 0x0c, 0xee, 0x8d, 0x3d, 
	0xf6, 0xf3, 0x65, 0x3e, 0x44, 0x0d, 0xb6, 0xbe, 0xd8, 0x56, 0xee, 0xbd, 
	0x4a, 0x0b, 0x5d, 0xbe, 0x32, 0xf5, 0x13, 0x3e, 0xe6, 0x54, 0xbd, 0xbe, 
	0x6b, 0xf2, 0x66, 0xbe, 0xec, 0xc5, 0xfa, 0xbd, 0xe4, 0xcf, 0xaa, 0xbd, 
	0xe6, 0x4e, 0x4c, 0xbe, 0xab, 0x79, 0xb6, 0x3e, 0x08, 0x07, 0x16, 0xbd, 
	0xa0, 0xbd, 0x11, 0x3c, 0xa4, 0x89, 0xa8, 0x3d, 0x32, 0x2d, 0x53, 0x3e, 
	0x5e, 0x53, 0x4b, 0x3e, 0x3f, 0x78, 0xcb, 0x3e, 0xed, 0x89, 0x93, 0x3e, 
	0x72, 0x78, 0xb5, 0xbe, 0xca, 0xea, 0xbb, 0xbe, 0x3c, 0xcf, 0xe3, 0x3d, 
	0x68, 0x0e, 0x00, 0xbd, 0xc0, 0xa1, 0x6d, 0x3d, 0xb3, 0xc9, 0xc2, 0x3e, 
	0xe1, 0x44, 0x74, 0xbe, 0xc9, 0x31, 0xc0, 0xbe, 0xd2, 0x73, 0x42, 0x3e, 
	0x6e, 0x7d, 0x27, 0xbe, 0xb4, 0xcf, 0xeb, 0x3d, 0xfb, 0x8d, 0xd5, 0x3e, 
	0x00, 0x60, 0x10, 0x3b, 0x99, 0x13, 0x8a, 0xbe, 0x38, 0xd5, 0xea, 0x3e, 
	0x5c, 0x67, 0xae, 0xbe, 0x6c, 0x1e, 0xc1, 0x3d, 0x55, 0xb2, 0x65, 0x3f, 
	0x86, 0x0d, 0x57, 0xbd, 0xb3, 0xd9, 0xf6, 0x3e, 0xc2, 0x71, 0x48, 0x3e, 
	0xbc, 0xad, 0x84, 0xbe, 0xe6, 0xb3, 0x17, 0x3c, 0x95, 0x7d, 0xa5, 0xbf, 
	0x6a, 0x58, 0x20, 0x3e, 0xd0, 0x8b, 0xf0, 0xbc, 0x4a, 0x2c, 0x7f, 0x3e, 
	0xad, 0x6e, 0xc5, 0x3f, 0xb7, 0x66, 0xd3, 0x3e, 0xf6, 0xe8, 0x2a, 0x3e, 
	0xda, 0x06, 0x1c, 0xc0, 0x84, 0x1c, 0xde, 0x3d, 0x46, 0x8f, 0xa6, 0xbe, 
	0xd6, 0xbf, 0x74, 0x40, 0x94, 0xe3, 0xc2, 0xbe, 0x19, 0xae, 0xfb, 0xbf, 
	0x6a, 0xa8, 0x84, 0xbe, 0x66, 0x75, 0x9e, 0xbe, 0x56, 0x4f, 0x59, 0x3e, 
	0xaf, 0xdc, 0x30, 0x3f, 0x4a, 0xa1, 0x38, 0x3e, 0xc9, 0x7c, 0xa5, 0xbe, 
	0xb6, 0xfa, 0x02, 0x3e, 0x84, 0x33, 0xb8, 0xbd, 0xe6, 0x87, 0x28, 0x3e, 
	0x6e, 0xa2, 0xaa, 0xbe, 0x6d, 0xe3, 0x84, 0xbe, 0xc0, 0x0a, 0x3a, 0x3d, 
	0x9c, 0xa8, 0xc6, 0xbe, 0xbe, 0x73, 0xb4, 0xbe, 0xfc, 0xe0, 0xac, 0x3d, 
	0xde, 0x5e, 0xba, 0xbe, 0x28, 0x3f, 0x46, 0xbd, 0xbe, 0x99, 0x4a, 0x3e, 
	0xea, 0xf3, 0xaf, 0xbe, 0xee, 0xf7, 0x39, 0xbe, 0xfa, 0xfd, 0x2e, 0xbe, 
	0xfc, 0xcb, 0xaa, 0xbe, 0x05, 0xf4, 0xd3, 0x3e, 0xc4, 0xf9, 0x12, 0xc0, 
	0x04, 0x33, 0x8f, 0xbe, 0x48, 0xe5, 0x6d, 0x3d, 0x5b, 0xe7, 0x91, 0x40, 
	0x64, 0xb3, 0xb7, 0xbd, 0x6a, 0x04, 0x9f, 0xbe, 0xb0, 0xaa, 0x43, 0xc0, 
	0x39, 0xce, 0xd6, 0x3f, 0xdd, 0xdc, 0x6b, 0x40, 0xd8, 0xe3, 0xbd, 0xbe, 
	0x7d, 0xbb, 0xa7, 0xbe, 0x1e, 0xd8, 0x22, 0xbd, 0x2f, 0x69, 0x3e, 0x3e, 
	0xc3, 0xaa, 0xac, 0xbe, 0xf1, 0xec, 0x71, 0xbe, 0xb2, 0x8d, 0x31, 0x3e, 
	0x67, 0x00, 0xca, 0x3f, 0x40, 0x6e, 0x89, 0x3b, 0x8a, 0x7e, 0x1a, 0xbe, 
	0xef, 0xc7, 0x93, 0xbf, 0x88, 0x1f, 0xfa, 0xbd, 0x6e, 0xcf, 0xcd, 0xbe, 
	0x83, 0xa9, 0x95, 0x40, 0x94, 0xfb, 0xb5, 0x40, 0x1d, 0x63, 0xd4, 0x40, 
	0x4c, 0x33, 0xc6, 0xbd, 0x30, 0x47, 0x88, 0xbd, 0xe4, 0x62, 0xc1, 0x3b, 
	0x29, 0xbb, 0x0c, 0xbf, 0x2e, 0xd3, 0x97, 0xbe, 0xf0, 0x02, 0x2b, 0xbe, 
	0xec, 0x2f, 0xe2, 0x3d, 0xad, 0xb5, 0x0d, 0xc0, 0x7d, 0xba, 0xc9, 0x3e, 
	0xc0, 0x0c, 0xba, 0x3b, 0x6b, 0xdc, 0x9c, 0x40, 0xe2, 0x53, 0x79, 0xbe, 
	0xc5, 0xde, 0xb5, 0x3e, 0xb9, 0xdc, 0x3e, 0xc0, 0x8a, 0xf3, 0xc8, 0x3f, 
	0x60, 0xe9, 0x5d, 0x40, 0xc6, 0x7d, 0x31, 0x3e, 0xfc, 0xd3, 0xc4, 0xbe, 
	0x4d, 0x8d, 0x8c, 0x3e, 0xa2, 0x35, 0x16, 0x3f, 0xa9, 0x27, 0xab, 0xbe, 
	0xdc, 0xe0, 0x65, 0xbe, 0x4f, 0xdc, 0xcf, 0xbe, 0x6a, 0x63, 0xf2, 0xbf, 
	0x6e, 0xba, 0x0d, 0x3e, 0x40, 0x97, 0x40, 0x3d, 0xfd, 0xf2, 0x9b, 0x40, 
	0x8c, 0xf6, 0xbf, 0x3d, 0x00, 0x48, 0x34, 0x3b, 0x90, 0x7f, 0x47, 0xc0, 
	0x14, 0x2e, 0xe8, 0x3f, 0xa7, 0x26, 0x83, 0x40, 0x9c, 0x4e, 0xac, 0xbe, 
	0xb5, 0x41, 0xa5, 0x3e, 0x3b, 0xe2, 0xc3, 0x3e, 0x2a, 0xcf, 0x27, 0x3f, 
	0x2e, 0xce, 0x73, 0x3e, 0xbe, 0x75, 0x38, 0x3e, 0x7e, 0x97, 0x62, 0x3e, 
	0x26, 0x0e, 0x16, 0x3e, 0x43, 0xcd, 0xdc, 0xbe, 0xbb, 0xce, 0xbf, 0x3e, 
	0x49, 0x6a, 0x97, 0x3e, 0xda, 0x16, 0x70, 0x3e, 0xe8, 0x73, 0x7c, 0xbd, 
	0xbe, 0xb0, 0xcb, 0xbe, 0xa5, 0x7c, 0xb1, 0xbe, 0xd0, 0x2b, 0x1a, 0x3d, 
	0x0f, 0x6f, 0x94, 0x3e, 0xa2, 0x4a, 0x52, 0x3e, 0x64, 0x69, 0xa8, 0x3d, 
	0xaa, 0x63, 0x14, 0xbe, 0xd4, 0xca, 0xa4, 0xbe, 0xe7, 0x87, 0xda, 0xbe, 
	0x7c, 0xb0, 0xfd, 0xbd, 0x72, 0xfa, 0xff, 0xff, 0x10, 0x00, 0x00, 0x00, 
	0x09, 0x00, 0x00, 0x00, 0x14, 0x00, 0x00, 0x00, 0x30, 0x00, 0x00, 0x00, 
	0x02, 0x00, 0x00, 0x00, 0x10, 0x00, 0x00, 0x00, 0x10, 0x00, 0x00, 0x00, 
	0x19, 0x00, 0x00, 0x00, 0x73, 0x65, 0x71, 0x75, 0x65, 0x6e, 0x74, 0x69, 
	0x61, 0x6c, 0x2f, 0x64, 0x65, 0x6e, 0x73, 0x65, 0x5f, 0x32, 0x2f, 0x4d, 
	0x61, 0x74, 0x4d, 0x75, 0x6c, 0x00, 0x00, 0x00, 0xf4, 0xf9, 0xff, 0xff, 
	0xea, 0xfa, 0xff, 0xff, 0x04, 0x00, 0x00, 0x00, 0x00, 0x02, 0x00, 0x00, 
	0xb8, 0xac, 0x1a, 0x3e, 0x80, 0xd4, 0xd5, 0x3e, 0x3d, 0xf0, 0x5f, 0x3f, 
	0xc7, 0x9b, 0x11, 0xc0, 0x38, 0x41, 0x9c, 0x3e, 0xe0, 0x17, 0xa6, 0xbd, 
	0x58, 0x2a, 0xba, 0xbe, 0xda, 0x2a, 0x6b, 0xbd, 0xe0, 0x6e, 0xe0, 0x3d, 
	0xc0, 0xfb, 0x75, 0x3d, 0x10, 0x55, 0xf0, 0xbe, 0xc4, 0x61, 0x93, 0x3e, 
	0xa4, 0x66, 0x9d, 0xbe, 0x70, 0x86, 0x7e, 0x3e, 0x48, 0x8b, 0x43, 0xbe, 
	0x78, 0x6b, 0xc8, 0xbe, 0xec, 0xf8, 0xac, 0x3e, 0x70, 0xbf, 0xa9, 0xbd, 
	0x30, 0x80, 0x82, 0xbd, 0xa0, 0xf4, 0xe9, 0xbd, 0xb0, 0x69, 0x7f, 0x3e, 
	0x30, 0x08, 0xee, 0x3e, 0xb8, 0x67, 0x84, 0x3e, 0x40, 0xb2, 0xa3, 0xbe, 
	0xb8, 0xd4, 0x71, 0x3e, 0x30, 0xf9, 0xb3, 0xbe, 0xad, 0x56, 0x07, 0x3f, 
	0x20, 0x59, 0xab, 0x3f, 0x64, 0xa9, 0x82, 0x3e, 0x60, 0x55, 0xb1, 0x3e, 
	0x80, 0xae, 0x3a, 0x3d, 0xc5, 0xb3, 0x9c, 0xbe, 0x00, 0xf6, 0xa9, 0xbe, 
	0x80, 0x55, 0x85, 0x3d, 0x48, 0x34, 0x6b, 0xbe, 0x54, 0xbb, 0xbb, 0xbe, 
	0xb8, 0xcd, 0x92, 0xbe, 0xe0, 0xd4, 0xe7, 0x3e, 0x84, 0xa7, 0xe0, 0xbe, 
	0x40, 0x26, 0xbf, 0xbd, 0xb8, 0xb3, 0x55, 0xbe, 0x80, 0x74, 0x29, 0x3c, 
	0x78, 0xf6, 0xa1, 0xbe, 0x74, 0x42, 0xb8, 0xbe, 0x70, 0xcc, 0x66, 0xbe, 
	0x8c, 0x32, 0x9f, 0xbe, 0xa0, 0x41, 0x43, 0xbd, 0x30, 0x2d, 0x9f, 0xbe, 
	0x30, 0xcd, 0xd4, 0x3e, 0x60, 0x78, 0x1e, 0xbd, 0x32, 0xa6, 0x80, 0x3f, 
	0x27, 0x04, 0xf6, 0x3f, 0xa8, 0xf8, 0x2d, 0x3e, 0x78, 0xd5, 0x95, 0xbe, 
	0x80, 0x15, 0x71, 0xbc, 0xe0, 0x19, 0xd5, 0xbe, 0xa4, 0x7d, 0xcd, 0x3e, 
	0xb8, 0x57, 0x01, 0xbe, 0xb0, 0x10, 0x78, 0x3f, 0xf3, 0xbf, 0xd0, 0x3f, 
	0x60, 0x2e, 0x80, 0xbd, 0x3c, 0xf5, 0xc1, 0x3e, 0xc0, 0x9c, 0x95, 0xbd, 
	0xa7, 0xc8, 0x66, 0xbd, 0xd8, 0xc8, 0x44, 0xbe, 0x84, 0xa0, 0x81, 0x3e, 
	0x3d, 0x3b, 0x67, 0x3f, 0x7d, 0x99, 0xa8, 0x3f, 0x0c, 0x59, 0xca, 0xbe, 
	0x00, 0x20, 0x32, 0x3e, 0x74, 0x5c, 0x86, 0x3e, 0xca, 0xe8, 0x8a, 0xbc, 
	0x24, 0xfc, 0x81, 0xbe, 0xa8, 0xff, 0x90, 0xbe, 0xb8, 0x5d, 0x74, 0xbe, 
	0x90, 0xfb, 0xd2, 0x3d, 0xd0, 0x74, 0xef, 0x3d, 0x78, 0x08, 0x32, 0xbe, 
	0x54, 0x0c, 0xcf, 0xbe, 0xf0, 0x8f, 0xaf, 0xbe, 0x8c, 0x42, 0x8c, 0xbe, 
	0x00, 0xea, 0xc9, 0x3b, 0x20, 0x1e, 0xbc, 0xbe, 0xbc, 0xc0, 0xd3, 0xbe, 
	0xcc, 0xb2, 0xb8, 0xbe, 0xa0, 0xf1, 0x6d, 0xbd, 0x08, 0x6e, 0x76, 0xbe, 
	0x40, 0x3b, 0x81, 0xbe, 0x88, 0x59, 0x36, 0xbe, 0xa0, 0x49, 0xce, 0x3d, 
	0x84, 0xe0, 0x45, 0x3f, 0xc1, 0x08, 0xfb, 0x3f, 0xec, 0x5c, 0x8c, 0xbe, 
	0x4c, 0xe3, 0x93, 0x3e, 0x50, 0x6c, 0x20, 0xbe, 0x08, 0x1a, 0xe9, 0x3e, 
	0xd8, 0x01, 0xa7, 0x3e, 0xe4, 0xf0, 0x8d, 0x3e, 0x35, 0x3e, 0x58, 0x3f, 
	0x87, 0xc0, 0x94, 0x3e, 0xf4, 0x7c, 0xc0, 0xbe, 0x24, 0xc6, 0xcf, 0xbe, 
	0xc0, 0x62, 0xdf, 0x3d, 0xfc, 0xc0, 0x56, 0x3f, 0xd0, 0x3b, 0xa6, 0x3d, 
	0xc8, 0x22, 0x4a, 0xbe, 0x50, 0x42, 0xf8, 0x3d, 0x94, 0xa6, 0x8c, 0xbe, 
	0x60, 0x82, 0x92, 0xbd, 0x00, 0x0e, 0xe4, 0x3e, 0x10, 0x67, 0xc3, 0x3d, 
	0x70, 0x5a, 0x73, 0xbe, 0x20, 0xae, 0x8d, 0xbd, 0xc0, 0x53, 0x9f, 0x3c, 
	0x60, 0x0e, 0x07, 0x3e, 0x48, 0x09, 0x18, 0xbe, 0x6c, 0x35, 0xf1, 0xbe, 
	0x74, 0x15, 0xea, 0x3e, 0x70, 0xbd, 0x18, 0xbe, 0x04, 0x82, 0x83, 0xbe, 
	0x6c, 0x23, 0xf5, 0x3e, 0x80, 0xb0, 0x08, 0xbd, 0xec, 0x95, 0xbe, 0xbe, 
	0x44, 0x0d, 0xf2, 0xbe, 0xc4, 0x55, 0xca, 0xbe, 0x7c, 0x5d, 0x85, 0xbe, 
	0x64, 0x35, 0x9b, 0xbe, 0x20, 0xf8, 0xba, 0xbe, 0xc2, 0xfc, 0xff, 0xff, 
	0x10, 0x00, 0x00, 0x00, 0x08, 0x00, 0x00, 0x00, 0x14, 0x00, 0x00, 0x00, 
	0x30, 0x00, 0x00, 0x00, 0x02, 0x00, 0x00, 0x00, 0x10, 0x00, 0x00, 0x00, 
	0x08, 0x00, 0x00, 0x00, 0x19, 0x00, 0x00, 0x00, 0x73, 0x65, 0x71, 0x75, 
	0x65, 0x6e, 0x74, 0x69, 0x61, 0x6c, 0x2f, 0x64, 0x65, 0x6e, 0x73, 0x65, 
	0x5f, 0x31, 0x2f, 0x4d, 0x61, 0x74, 0x4d, 0x75, 0x6c, 0x00, 0x00, 0x00, 
	0x44, 0xfc, 0xff, 0xff, 0x3a, 0xfd, 0xff, 0xff, 0x04, 0x00, 0x00, 0x00, 
	0x20, 0x00, 0x00, 0x00, 0x18, 0xcd, 0x05, 0xbf, 0x26, 0xd4, 0x16, 0xbf, 
	0x51, 0xeb, 0x64, 0xbc, 0x95, 0xaf, 0x4c, 0xbc, 0x00, 0xf9, 0xd5, 0xbb, 
	0x6d, 0x46, 0xda, 0xbe, 0x68, 0x23, 0xa6, 0xbd, 0x59, 0xd6, 0x80, 0x3d, 
	0x32, 0xfd, 0xff, 0xff, 0x10, 0x00, 0x00, 0x00, 0x07, 0x00, 0x00, 0x00, 
	0x14, 0x00, 0x00, 0x00, 0x2c, 0x00, 0x00, 0x00, 0x02, 0x00, 0x00, 0x00, 
	0x08, 0x00, 0x00, 0x00, 0x01, 0x00, 0x00, 0x00, 0x17, 0x00, 0x00, 0x00, 
	0x73, 0x65, 0x71, 0x75, 0x65, 0x6e, 0x74, 0x69, 0x61, 0x6c, 0x2f, 0x64, 
	0x65, 0x6e, 0x73, 0x65, 0x2f, 0x4d, 0x61, 0x74, 0x4d, 0x75, 0x6c, 0x00, 
	0xb0, 0xfc, 0xff, 0xff, 0xa6, 0xfd, 0xff, 0xff, 0x04, 0x00, 0x00, 0x00, 
	0x04, 0x00, 0x00, 0x00, 0x44, 0x8b, 0x2e, 0x41, 0x82, 0xfd, 0xff, 0xff, 
	0x10, 0x00, 0x00, 0x00, 0x06, 0x00, 0x00, 0x00, 0x10, 0x00, 0x00, 0x00, 
	0x44, 0x00, 0x00, 0x00, 0x01, 0x00, 0x00, 0x00, 0x01, 0x00, 0x00, 0x00, 
	0x32, 0x00, 0x00, 0x00, 0x73, 0x65, 0x71, 0x75, 0x65, 0x6e, 0x74, 0x69, 
	0x61, 0x6c, 0x2f, 0x64, 0x65, 0x6e, 0x73, 0x65, 0x5f, 0x34, 0x2f, 0x42, 
	0x69, 0x61, 0x73, 0x41, 0x64, 0x64, 0x2f, 0x52, 0x65, 0x61, 0x64, 0x56, 
	0x61, 0x72, 0x69, 0x61, 0x62, 0x6c, 0x65, 0x4f, 0x70, 0x2f, 0x72, 0x65, 
	0x73, 0x6f, 0x75, 0x72, 0x63, 0x65, 0x00, 0x00, 0x18, 0xfd, 0xff, 0xff, 
	0x0e, 0xfe, 0xff, 0xff, 0x04, 0x00, 0x00, 0x00, 0x40, 0x00, 0x00, 0x00, 
	0x0d, 0xe4, 0xf5, 0x3e, 0x00, 0x00, 0x00, 0x00, 0x12, 0xd7, 0xba, 0x3e, 
	0x33, 0x8a, 0x37, 0xbc, 0x00, 0x00, 0x00, 0x00, 0x3d, 0x7d, 0xce, 0xbe, 
	0x99, 0x77, 0x2e, 0x41, 0x6c, 0x22, 0xcf, 0xbe, 0x9f, 0xd0, 0x43, 0xc0, 
	0x00, 0x00, 0x00, 0x00, 0x00, 0x00, 0x00, 0x00, 0xd6, 0xc4, 0x2e, 0x41, 
	0x00, 0x00, 0x00, 0x00, 0x0d, 0xe4, 0xc5, 0xbe, 0x40, 0xa2, 0x06, 0xc0, 
	0x00, 0x00, 0x00, 0x00, 0x26, 0xfe, 0xff, 0xff, 0x10, 0x00, 0x00, 0x00, 
	0x05, 0x00, 0x00, 0x00, 0x10, 0x00, 0x00, 0x00, 0x44, 0x00, 0x00, 0x00, 
	0x01, 0x00, 0x00, 0x00, 0x10, 0x00, 0x00, 0x00, 0x32, 0x00, 0x00, 0x00, 
	0x73, 0x65, 0x71, 0x75, 0x65, 0x6e, 0x74, 0x69, 0x61, 0x6c, 0x2f, 0x64, 
	0x65, 0x6e, 0x73, 0x65, 0x5f, 0x33, 0x2f, 0x42, 0x69, 0x61, 0x73, 0x41, 
	0x64, 0x64, 0x2f, 0x52, 0x65, 0x61, 0x64, 0x56, 0x61, 0x72, 0x69, 0x61, 
	0x62, 0x6c, 0x65, 0x4f, 0x70, 0x2f, 0x72, 0x65, 0x73, 0x6f, 0x75, 0x72, 
	0x63, 0x65, 0x00, 0x00, 0xbc, 0xfd, 0xff, 0xff, 0xb2, 0xfe, 0xff, 0xff, 
	0x04, 0x00, 0x00, 0x00, 0x40, 0x00, 0x00, 0x00, 0xe8, 0x50, 0x2d, 0x41, 
	0x1a, 0x5f, 0x23, 0x41, 0x6f, 0x6c, 0x27, 0x41, 0x00, 0x00, 0x00, 0x00, 
	0xa5, 0x6e, 0x9b, 0xbc, 0x6d, 0x7a, 0x35, 0x41, 0x00, 0x00, 0x00, 0x00, 
	0x00, 0x00, 0x00, 0x00, 0x5a, 0x58, 0x9e, 0x3e, 0x4e, 0x4d, 0x95, 0xc0, 
	0x00, 0x00, 0x00, 0x00, 0x54, 0x42, 0x2b, 0x41, 0x08, 0x05, 0x30, 0x41, 
	0xaa, 0x70, 0x26, 0x41, 0xf4, 0x07, 0x2b, 0x41, 0x00, 0x00, 0x00, 0x00, 
	0xca, 0xfe, 0xff, 0xff, 0x10, 0x00, 0x00, 0x00, 0x04, 0x00, 0x00, 0x00, 
	0x10, 0x00, 0x00, 0x00, 0x44, 0x00, 0x00, 0x00, 0x01, 0x00, 0x00, 0x00, 
	0x10, 0x00, 0x00, 0x00, 0x32, 0x00, 0x00, 0x00, 0x73, 0x65, 0x71, 0x75, 
	0x65, 0x6e, 0x74, 0x69, 0x61, 0x6c, 0x2f, 0x64, 0x65, 0x6e, 0x73, 0x65, 
	0x5f, 0x32, 0x2f, 0x42, 0x69, 0x61, 0x73, 0x41, 0x64, 0x64, 0x2f, 0x52, 
	0x65, 0x61, 0x64, 0x56, 0x61, 0x72, 0x69, 0x61, 0x62, 0x6c, 0x65, 0x4f, 
	0x70, 0x2f, 0x72, 0x65, 0x73, 0x6f, 0x75, 0x72, 0x63, 0x65, 0x00, 0x00, 
	0x60, 0xfe, 0xff, 0xff, 0x56, 0xff, 0xff, 0xff, 0x04, 0x00, 0x00, 0x00, 
	0x40, 0x00, 0x00, 0x00, 0x14, 0x9b, 0x00, 0x3f, 0x00, 0x00, 0x00, 0x00, 
	0x00, 0x00, 0x00, 0x00, 0x81, 0xda, 0x76, 0x40, 0x00, 0x00, 0x00, 0x00, 
	0x00, 0x00, 0x00, 0x00, 0x6f, 0x11, 0x33, 0x41, 0x22, 0x6e, 0x32, 0x41, 
	0x7b, 0xb1, 0x29, 0x41, 0x00, 0x00, 0x00, 0x00, 0x00, 0x00, 0x00, 0x00, 
	0xd3, 0x93, 0x28, 0x41, 0x52, 0x2d, 0x30, 0x40, 0x00, 0x00, 0x00, 0x00, 
	0x00, 0x00, 0x00, 0x00, 0x00, 0x00, 0x00, 0x00, 0x6e, 0xff, 0xff, 0xff, 
	0x10, 0x00, 0x00, 0x00, 0x03, 0x00, 0x00, 0x00, 0x10, 0x00, 0x00, 0x00, 
	0x48, 0x00, 0x00, 0x00, 0x01, 0x00, 0x00, 0x00, 0x10, 0x00, 0x00, 0x00, 
	0x32, 0x00, 0x00, 0x00, 0x73, 0x65, 0x71, 0x75, 0x65, 0x6e, 0x74, 0x69, 
	0x61, 0x6c, 0x2f, 0x64, 0x65, 0x6e, 0x73, 0x65, 0x5f, 0x31, 0x2f, 0x42, 
	0x69, 0x61, 0x73, 0x41, 0x64, 0x64, 0x2f, 0x52, 0x65, 0x61, 0x64, 0x56, 
	0x61, 0x72, 0x69, 0x61, 0x62, 0x6c, 0x65, 0x4f, 0x70, 0x2f, 0x72, 0x65, 
	0x73, 0x6f, 0x75, 0x72, 0x63, 0x65, 0x00, 0x00, 0x04, 0x00, 0x06, 0x00, 
	0x04, 0x00, 0x00, 0x00, 0x00, 0x00, 0x06, 0x00, 0x08, 0x00, 0x04, 0x00, 
	0x06, 0x00, 0x00, 0x00, 0x04, 0x00, 0x00, 0x00, 0x20, 0x00, 0x00, 0x00, 
	0x00, 0x00, 0x00, 0x00, 0x00, 0x00, 0x00, 0x00, 0x18, 0x9d, 0x57, 0x41, 
	0x46, 0xfd, 0x64, 0x41, 0x00, 0x00, 0x00, 0x00, 0x00, 0x00, 0x00, 0x00, 
	0x00, 0x00, 0x00, 0x00, 0x64, 0x81, 0x77, 0x40, 0x00, 0x00, 0x0e, 0x00, 
	0x14, 0x00, 0x04, 0x00, 0x00, 0x00, 0x08, 0x00, 0x0c, 0x00, 0x10, 0x00, 
	0x0e, 0x00, 0x00, 0x00, 0x10, 0x00, 0x00, 0x00, 0x02, 0x00, 0x00, 0x00, 
	0x10, 0x00, 0x00, 0x00, 0x44, 0x00, 0x00, 0x00, 0x01, 0x00, 0x00, 0x00, 
	0x08, 0x00, 0x00, 0x00, 0x30, 0x00, 0x00, 0x00, 0x73, 0x65, 0x71, 0x75, 
	0x65, 0x6e, 0x74, 0x69, 0x61, 0x6c, 0x2f, 0x64, 0x65, 0x6e, 0x73, 0x65, 
	0x2f, 0x42, 0x69, 0x61, 0x73, 0x41, 0x64, 0x64, 0x2f, 0x52, 0x65, 0x61, 
	0x64, 0x56, 0x61, 0x72, 0x69, 0x61, 0x62, 0x6c, 0x65, 0x4f, 0x70, 0x2f, 
	0x72, 0x65, 0x73, 0x6f, 0x75, 0x72, 0x63, 0x65, 0x00, 0x00, 0x00, 0x00, 
	0xa4, 0xff, 0xff, 0xff, 0x14, 0x00, 0x18, 0x00, 0x04, 0x00, 0x00, 0x00, 
	0x08, 0x00, 0x0c, 0x00, 0x10, 0x00, 0x00, 0x00, 0x00, 0x00, 0x14, 0x00, 
	0x14, 0x00, 0x00, 0x00, 0x14, 0x00, 0x00, 0x00, 0x01, 0x00, 0x00, 0x00, 
	0x18, 0x00, 0x00, 0x00, 0x30, 0x00, 0x00, 0x00, 0x20, 0x00, 0x00, 0x00, 
	0x02, 0x00, 0x00, 0x00, 0x01, 0x00, 0x00, 0x00, 0x01, 0x00, 0x00, 0x00, 
	0x0b, 0x00, 0x00, 0x00, 0x64, 0x65, 0x6e, 0x73, 0x65, 0x5f, 0x69, 0x6e, 
	0x70, 0x75, 0x74, 0x00, 0x02, 0x00, 0x00, 0x00, 0xff, 0xff, 0xff, 0xff, 
	0x01, 0x00, 0x00, 0x00, 0xfc, 0xff, 0xff, 0xff, 0x04, 0x00, 0x04, 0x00, 
	0x04, 0x00, 0x00, 0x00
};
const int model_data_len = 5248;