
#ifdef __has_attribute
#define HAVE_ATTRIBUTE(x) __has_attribute(x)
#else
#define HAVE_ATTRIBUTE(x) 0
#endif
#if HAVE_ATTRIBUTE(aligned) || (defined(__GNUC__) && !defined(__clang__))
#define DATA_ALIGN_ATTRIBUTE __attribute__((aligned(4)))
#else
#define DATA_ALIGN_ATTRIBUTE
#endif

const unsigned char model_data[] DATA_ALIGN_ATTRIBUTE = {
	0x1c, 0x00, 0x00, 0x00, 0x54, 0x46, 0x4c, 0x33, 0x14, 0x00, 0x20, 0x00, 
	0x04, 0x00, 0x08, 0x00, 0x0c, 0x00, 0x10, 0x00, 0x14, 0x00, 0x00, 0x00, 
	0x18, 0x00, 0x1c, 0x00, 0x14, 0x00, 0x00, 0x00, 0x03, 0x00, 0x00, 0x00, 
	0x18, 0x00, 0x00, 0x00, 0x1c, 0x00, 0x00, 0x00, 0xc0, 0x00, 0x00, 0x00, 
	0x1c, 0x00, 0x00, 0x00, 0x68, 0x00, 0x00, 0x00, 0x60, 0x00, 0x00, 0x00, 
	0x01, 0x00, 0x00, 0x00, 0x70, 0x04, 0x00, 0x00, 0x01, 0x00, 0x00, 0x00, 
	0xc8, 0x00, 0x00, 0x00, 0x12, 0x00, 0x00, 0x00, 0x2c, 0x14, 0x00, 0x00, 
	0x28, 0x14, 0x00, 0x00, 0x34, 0x13, 0x00, 0x00, 0x80, 0x12, 0x00, 0x00, 
	0xd8, 0x11, 0x00, 0x00, 0x30, 0x11, 0x00, 0x00, 0xc4, 0x10, 0x00, 0x00, 
	0x54, 0x10, 0x00, 0x00, 0x00, 0x0e, 0x00, 0x00, 0xac, 0x09, 0x00, 0x00, 
	0x58, 0x05, 0x00, 0x00, 0xc4, 0x04, 0x00, 0x00, 0xfc, 0x13, 0x00, 0x00, 
	0xf8, 0x13, 0x00, 0x00, 0xf4, 0x13, 0x00, 0x00, 0xf0, 0x13, 0x00, 0x00, 
	0xec, 0x13, 0x00, 0x00, 0x3c, 0x00, 0x00, 0x00, 0x00, 0x00, 0x00, 0x00, 
	0x01, 0x00, 0x00, 0x00, 0x0c, 0x00, 0x00, 0x00, 0x08, 0x00, 0x0c, 0x00, 
	0x04, 0x00, 0x08, 0x00, 0x08, 0x00, 0x00, 0x00, 0x08, 0x00, 0x00, 0x00, 
	0x11, 0x00, 0x00, 0x00, 0x13, 0x00, 0x00, 0x00, 0x6d, 0x69, 0x6e, 0x5f, 
	0x72, 0x75, 0x6e, 0x74, 0x69, 0x6d, 0x65, 0x5f, 0x76, 0x65, 0x72, 0x73, 
	0x69, 0x6f, 0x6e, 0x00, 0x4a, 0xed, 0xff, 0xff, 0x04, 0x00, 0x00, 0x00, 
	0x10, 0x00, 0x00, 0x00, 0x31, 0x2e, 0x35, 0x2e, 0x30, 0x00, 0x00, 0x00, 
	0x00, 0x00, 0x00, 0x00, 0x00, 0x00, 0x00, 0x00, 0x0f, 0x00, 0x00, 0x00, 
	0x4d, 0x4c, 0x49, 0x52, 0x20, 0x43, 0x6f, 0x6e, 0x76, 0x65, 0x72, 0x74, 
	0x65, 0x64, 0x2e, 0x00, 0x00, 0x00, 0x0e, 0x00, 0x18, 0x00, 0x04, 0x00, 
	0x08, 0x00, 0x0c, 0x00, 0x10, 0x00, 0x14, 0x00, 0x0e, 0x00, 0x00, 0x00, 
	0x14, 0x00, 0x00, 0x00, 0x54, 0x00, 0x00, 0x00, 0x58, 0x00, 0x00, 0x00, 
	0x5c, 0x00, 0x00, 0x00, 0x70, 0x00, 0x00, 0x00, 0x10, 0x00, 0x00, 0x00, 
	0x08, 0x13, 0x00, 0x00, 0x98, 0x12, 0x00, 0x00, 0xf4, 0x11, 0x00, 0x00, 
	0x4c, 0x11, 0x00, 0x00, 0xa4, 0x10, 0x00, 0x00, 0xfc, 0x0f, 0x00, 0x00, 
	0xa8, 0x0f, 0x00, 0x00, 0x34, 0x0f, 0x00, 0x00, 0xe0, 0x0c, 0x00, 0x00, 
	0x8c, 0x08, 0x00, 0x00, 0x38, 0x04, 0x00, 0x00, 0x68, 0x03, 0x00, 0x00, 
	0x74, 0x02, 0x00, 0x00, 0xa4, 0x01, 0x00, 0x00, 0xe4, 0x00, 0x00, 0x00, 
	0x68, 0x00, 0x00, 0x00, 0x01, 0x00, 0x00, 0x00, 0x00, 0x00, 0x00, 0x00, 
	0x01, 0x00, 0x00, 0x00, 0x0f, 0x00, 0x00, 0x00, 0x05, 0x00, 0x00, 0x00, 
	0xe8, 0x02, 0x00, 0x00, 0x18, 0x02, 0x00, 0x00, 0x48, 0x01, 0x00, 0x00, 
	0x88, 0x00, 0x00, 0x00, 0x10, 0x00, 0x00, 0x00, 0x04, 0x00, 0x00, 0x00, 
	0x6d, 0x61, 0x69, 0x6e, 0x00, 0x00, 0x00, 0x00, 0x12, 0xfe, 0xff, 0xff, 
	0x00, 0x00, 0x00, 0x08, 0x18, 0x00, 0x00, 0x00, 0x0c, 0x00, 0x00, 0x00, 
	0x04, 0x00, 0x00, 0x00, 0x3c, 0xed, 0xff, 0xff, 0x01, 0x00, 0x00, 0x00, 
	0x0f, 0x00, 0x00, 0x00, 0x03, 0x00, 0x00, 0x00, 0x0e, 0x00, 0x00, 0x00, 
	0x0a, 0x00, 0x00, 0x00, 0x05, 0x00, 0x00, 0x00, 0xb0, 0xed, 0xff, 0xff, 
	0x14, 0x00, 0x00, 0x00, 0x10, 0x00, 0x00, 0x00, 0x18, 0x00, 0x00, 0x00, 
	0x30, 0x00, 0x00, 0x00, 0x20, 0x00, 0x00, 0x00, 0x02, 0x00, 0x00, 0x00, 
	0x01, 0x00, 0x00, 0x00, 0x01, 0x00, 0x00, 0x00, 0x08, 0x00, 0x00, 0x00, 
	0x49, 0x64, 0x65, 0x6e, 0x74, 0x69, 0x74, 0x79, 0x00, 0x00, 0x00, 0x00, 
	0x02, 0x00, 0x00, 0x00, 0xff, 0xff, 0xff, 0xff, 0x01, 0x00, 0x00, 0x00, 
	0x98, 0xed, 0xff, 0xff, 0x86, 0xfe, 0xff, 0xff, 0x00, 0x00, 0x00, 0x08, 
	0x1c, 0x00, 0x00, 0x00, 0x10, 0x00, 0x00, 0x00, 0x04, 0x00, 0x00, 0x00, 
	0xaa, 0xfd, 0xff, 0xff, 0x00, 0x00, 0x00, 0x01, 0x01, 0x00, 0x00, 0x00, 
	0x0e, 0x00, 0x00, 0x00, 0x03, 0x00, 0x00, 0x00, 0x0d, 0x00, 0x00, 0x00, 
	0x09, 0x00, 0x00, 0x00, 0x04, 0x00, 0x00, 0x00, 0x28, 0xee, 0xff, 0xff, 
	0x14, 0x00, 0x00, 0x00, 0x0f, 0x00, 0x00, 0x00, 0x18, 0x00, 0x00, 0x00, 
	0x74, 0x00, 0x00, 0x00, 0x64, 0x00, 0x00, 0x00, 0x02, 0x00, 0x00, 0x00, 
	0x01, 0x00, 0x00, 0x00, 0x10, 0x00, 0x00, 0x00, 0x4c, 0x00, 0x00, 0x00, 
	0x73, 0x65, 0x71, 0x75, 0x65, 0x6e, 0x74, 0x69, 0x61, 0x6c, 0x2f, 0x64, 
	0x65, 0x6e, 0x73, 0x65, 0x5f, 0x33, 0x2f, 0x4d, 0x61, 0x74, 0x4d, 0x75, 
	0x6c, 0x3b, 0x73, 0x65, 0x71, 0x75, 0x65, 0x6e, 0x74, 0x69, 0x61, 0x6c, 
	0x2f, 0x64, 0x65, 0x6e, 0x73, 0x65, 0x5f, 0x33, 0x2f, 0x52, 0x65, 0x6c, 
	0x75, 0x3b, 0x73, 0x65, 0x71, 0x75, 0x65, 0x6e, 0x74, 0x69, 0x61, 0x6c, 
	0x2f, 0x64, 0x65, 0x6e, 0x73, 0x65, 0x5f, 0x33, 0x2f, 0x42, 0x69, 0x61, 
	0x73, 0x41, 0x64, 0x64, 0x00, 0x00, 0x00, 0x00, 0x02, 0x00, 0x00, 0x00, 
	0xff, 0xff, 0xff, 0xff, 0x10, 0x00, 0x00, 0x00, 0x54, 0xee, 0xff, 0xff, 
	0x42, 0xff, 0xff, 0xff, 0x00, 0x00, 0x00, 0x08, 0x1c, 0x00, 0x00, 0x00, 
	0x10, 0x00, 0x00, 0x00, 0x04, 0x00, 0x00, 0x00, 0x66, 0xfe, 0xff, 0xff, 
	0x00, 0x00, 0x00, 0x01, 0x01, 0x00, 0x00, 0x00, 0x0d, 0x00, 0x00, 0x00, 
	0x03, 0x00, 0x00, 0x00, 0x0c, 0x00, 0x00, 0x00, 0x08, 0x00, 0x00, 0x00, 
	0x03, 0x00, 0x00, 0x00, 0xe4, 0xee, 0xff, 0xff, 0x14, 0x00, 0x00, 0x00, 
	0x0e, 0x00, 0x00, 0x00, 0x18, 0x00, 0x00, 0x00, 0x74, 0x00, 0x00, 0x00, 
	0x64, 0x00, 0x00, 0x00, 0x02, 0x00, 0x00, 0x00, 0x01, 0x00, 0x00, 0x00, 
	0x10, 0x00, 0x00, 0x00, 0x4c, 0x00, 0x00, 0x00, 0x73, 0x65, 0x71, 0x75, 
	0x65, 0x6e, 0x74, 0x69, 0x61, 0x6c, 0x2f, 0x64, 0x65, 0x6e, 0x73, 0x65, 
	0x5f, 0x32, 0x2f, 0x4d, 0x61, 0x74, 0x4d, 0x75, 0x6c, 0x3b, 0x73, 0x65, 
	0x71, 0x75, 0x65, 0x6e, 0x74, 0x69, 0x61, 0x6c, 0x2f, 0x64, 0x65, 0x6e, 
	0x73, 0x65, 0x5f, 0x32, 0x2f, 0x52, 0x65, 0x6c, 0x75, 0x3b, 0x73, 0x65, 
	0x71, 0x75, 0x65, 0x6e, 0x74, 0x69, 0x61, 0x6c, 0x2f, 0x64, 0x65, 0x6e, 
	0x73, 0x65, 0x5f, 0x32, 0x2f, 0x42, 0x69, 0x61, 0x73, 0x41, 0x64, 0x64, 
	0x00, 0x00, 0x00, 0x00, 0x02, 0x00, 0x00, 0x00, 0xff, 0xff, 0xff, 0xff, 
	0x10, 0x00, 0x00, 0x00, 0x0c, 0xf0, 0xff, 0xff, 0x00, 0x00, 0x0e, 0x00, 
	0x14, 0x00, 0x00, 0x00, 0x08, 0x00, 0x0c, 0x00, 0x07, 0x00, 0x10, 0x00, 
	0x0e, 0x00, 0x00, 0x00, 0x00, 0x00, 0x00, 0x08, 0x1c, 0x00, 0x00, 0x00, 
	0x10, 0x00, 0x00, 0x00, 0x04, 0x00, 0x00, 0x00, 0x32, 0xff, 0xff, 0xff, 
	0x00, 0x00, 0x00, 0x01, 0x01, 0x00, 0x00, 0x00, 0x0c, 0x00, 0x00, 0x00, 
	0x03, 0x00, 0x00, 0x00, 0x0b, 0x00, 0x00, 0x00, 0x07, 0x00, 0x00, 0x00, 
	0x02, 0x00, 0x00, 0x00, 0xb0, 0xef, 0xff, 0xff, 0x14, 0x00, 0x00, 0x00, 
	0x0d, 0x00, 0x00, 0x00, 0x18, 0x00, 0x00, 0x00, 0x74, 0x00, 0x00, 0x00, 
	0x64, 0x00, 0x00, 0x00, 0x02, 0x00, 0x00, 0x00, 0x01, 0x00, 0x00, 0x00, 
	0x10, 0x00, 0x00, 0x00, 0x4c, 0x00, 0x00, 0x00, 0x73, 0x65, 0x71, 0x75, 
	0x65, 0x6e, 0x74, 0x69, 0x61, 0x6c, 0x2f, 0x64, 0x65, 0x6e, 0x73, 0x65, 
	0x5f, 0x31, 0x2f, 0x4d, 0x61, 0x74, 0x4d, 0x75, 0x6c, 0x3b, 0x73, 0x65, 
	0x71, 0x75, 0x65, 0x6e, 0x74, 0x69, 0x61, 0x6c, 0x2f, 0x64, 0x65, 0x6e, 
	0x73, 0x65, 0x5f, 0x31, 0x2f, 0x52, 0x65, 0x6c, 0x75, 0x3b, 0x73, 0x65, 
	0x71, 0x75, 0x65, 0x6e, 0x74, 0x69, 0x61, 0x6c, 0x2f, 0x64, 0x65, 0x6e, 
	0x73, 0x65, 0x5f, 0x31, 0x2f, 0x42, 0x69, 0x61, 0x73, 0x41, 0x64, 0x64, 
	0x00, 0x00, 0x00, 0x00, 0x02, 0x00, 0x00, 0x00, 0xff, 0xff, 0xff, 0xff, 
	0x10, 0x00, 0x00, 0x00, 0xd8, 0xf0, 0xff, 0xff, 0x00, 0x00, 0x0e, 0x00, 
	0x16, 0x00, 0x00, 0x00, 0x08, 0x00, 0x0c, 0x00, 0x07, 0x00, 0x10, 0x00, 
	0x0e, 0x00, 0x00, 0x00, 0x00, 0x00, 0x00, 0x08, 0x24, 0x00, 0x00, 0x00, 
	0x18, 0x00, 0x00, 0x00, 0x0c, 0x00, 0x00, 0x00, 0x00, 0x00, 0x06, 0x00, 
	0x08, 0x00, 0x07, 0x00, 0x06, 0x00, 0x00, 0x00, 0x00, 0x00, 0x00, 0x01, 
	0x01, 0x00, 0x00, 0x00, 0x0b, 0x00, 0x00, 0x00, 0x03, 0x00, 0x00, 0x00, 
	0x00, 0x00, 0x00, 0x00, 0x06, 0x00, 0x00, 0x00, 0x01, 0x00, 0x00, 0x00, 
	0x0c, 0x00, 0x10, 0x00, 0x0b, 0x00, 0x00, 0x00, 0x0c, 0x00, 0x04, 0x00, 
	0x0c, 0x00, 0x00, 0x00, 0x09, 0x00, 0x00, 0x00, 0x00, 0x00, 0x00, 0x09, 
	0x01, 0x00, 0x00, 0x00, 0xa0, 0xf0, 0xff, 0xff, 0x14, 0x00, 0x00, 0x00, 
	0x0c, 0x00, 0x00, 0x00, 0x18, 0x00, 0x00, 0x00, 0x6c, 0x00, 0x00, 0x00, 
	0x5c, 0x00, 0x00, 0x00, 0x02, 0x00, 0x00, 0x00, 0x01, 0x00, 0x00, 0x00, 
	0x08, 0x00, 0x00, 0x00, 0x46, 0x00, 0x00, 0x00, 0x73, 0x65, 0x71, 0x75, 
	0x65, 0x6e, 0x74, 0x69, 0x61, 0x6c, 0x2f, 0x64, 0x65, 0x6e, 0x73, 0x65, 
	0x2f, 0x4d, 0x61, 0x74, 0x4d, 0x75, 0x6c, 0x3b, 0x73, 0x65, 0x71, 0x75, 
	0x65, 0x6e, 0x74, 0x69, 0x61, 0x6c, 0x2f, 0x64, 0x65, 0x6e, 0x73, 0x65, 
	0x2f, 0x52, 0x65, 0x6c, 0x75, 0x3b, 0x73, 0x65, 0x71, 0x75, 0x65, 0x6e, 
	0x74, 0x69, 0x61, 0x6c, 0x2f, 0x64, 0x65, 0x6e, 0x73, 0x65, 0x2f, 0x42, 
	0x69, 0x61, 0x73, 0x41, 0x64, 0x64, 0x00, 0x00, 0x02, 0x00, 0x00, 0x00, 
	0xff, 0xff, 0xff, 0xff, 0x08, 0x00, 0x00, 0x00, 0xc4, 0xf0, 0xff, 0xff, 
	0xba, 0xf1, 0xff, 0xff, 0x04, 0x00, 0x00, 0x00, 0x40, 0x00, 0x00, 0x00, 
	0xb5, 0x2a, 0x5d, 0xbf, 0xd6, 0x34, 0x2d, 0xbf, 0xaf, 0x8d, 0x98, 0x3f, 
	0x8c, 0x2c, 0xe7, 0x3c, 0xc0, 0xb4, 0xd8, 0x3e, 0x74, 0x14, 0x91, 0x3f, 
	0xc8, 0x01, 0x9c, 0xbe, 0x49, 0x76, 0x32, 0xbe, 0x5e, 0x5c, 0xe9, 0xbe, 
	0x03, 0x07, 0x87, 0xbd, 0x76, 0x0d, 0xba, 0x3f, 0xef, 0x08, 0x14, 0xbf, 
	0x80, 0x7b, 0x0a, 0xbd, 0xb0, 0x28, 0xd4, 0x3d, 0x4d, 0xf5, 0x9c, 0x3f, 
	0xe9, 0x2c, 0xb5, 0x3f, 0xd2, 0xf1, 0xff, 0xff, 0x10, 0x00, 0x00, 0x00, 
	0x0b, 0x00, 0x00, 0x00, 0x14, 0x00, 0x00, 0x00, 0x30, 0x00, 0x00, 0x00, 
	0x02, 0x00, 0x00, 0x00, 0x01, 0x00, 0x00, 0x00, 0x10, 0x00, 0x00, 0x00, 
	0x19, 0x00, 0x00, 0x00, 0x73, 0x65, 0x71, 0x75, 0x65, 0x6e, 0x74, 0x69, 
	0x61, 0x6c, 0x2f, 0x64, 0x65, 0x6e, 0x73, 0x65, 0x5f, 0x34, 0x2f, 0x4d, 
	0x61, 0x74, 0x4d, 0x75, 0x6c, 0x00, 0x00, 0x00, 0x54, 0xf1, 0xff, 0xff, 
	0x4a, 0xf2, 0xff, 0xff, 0x04, 0x00, 0x00, 0x00, 0x00, 0x04, 0x00, 0x00, 
	0xaa, 0x49, 0x81, 0x3e, 0x15, 0x64, 0xf9, 0xbe, 0x09, 0x30, 0xd0, 0xbd, 
	0x74, 0x75, 0xb0, 0xbd, 0x96, 0x19, 0x73, 0xbc, 0xc9, 0x41, 0x76, 0x3d, 
	0xce, 0x0d, 0x6e, 0x3e, 0xb8, 0x97, 0xd0, 0xbd, 0x7d, 0xa4, 0xd2, 0xbe, 
	0x01, 0x89, 0x1a, 0xbe, 0xfe, 0xcd, 0x4e, 0xbe, 0x74, 0xad, 0xfc, 0x3d, 
	0x6d, 0x4b, 0x98, 0x3e, 0xcd, 0xc6, 0x95, 0xbe, 0xc0, 0x95, 0x8b, 0x3c, 
	0x35, 0x8d, 0x8d, 0x3e, 0xeb, 0xdd, 0x1e, 0x3e, 0x21, 0x25, 0x9d, 0x3e, 
	0x59, 0xf8, 0xd0, 0x3c, 0x06, 0x6a, 0x10, 0x3e, 0x78, 0xaa, 0x00, 0xbe, 
	0x2c, 0x43, 0xac, 0x3e, 0x4e, 0xb7, 0xce, 0xbd, 0x2f, 0x3f, 0x95, 0x3e, 
	0x0f, 0xff, 0xa9, 0xbf, 0xdf, 0x83, 0x83, 0xbe, 0xa0, 0x34, 0xbe, 0x3e, 
	0xaa, 0x4b, 0xb2, 0xbe, 0xdb, 0xa7, 0x09, 0x3f, 0x2c, 0x13, 0x9a, 0xbd, 
	0x4a, 0x45, 0x0d, 0xbf, 0xcb, 0xc4, 0x01, 0xbe, 0xfd, 0xb8, 0x17, 0x3f, 
	0x28, 0x59, 0x45, 0x40, 0x34, 0x50, 0x0a, 0x3d, 0x8e, 0x56, 0x80, 0xbe, 
	0xd9, 0x80, 0xff, 0x3f, 0x12, 0x7b, 0x15, 0x3f, 0xeb, 0xbb, 0xcf, 0x3e, 
	0x3c, 0x1c, 0xcf, 0xbd, 0xf1, 0x5b, 0xae, 0x3f, 0x61, 0xe8, 0x11, 0x40, 
	0x1e, 0xea, 0x01, 0x3f, 0x50, 0x05, 0x0e, 0xbe, 0xda, 0xa3, 0x30, 0x40, 
	0xa1, 0x4e, 0x12, 0x3e, 0xa2, 0xb1, 0x11, 0x40, 0xb4, 0x61, 0x78, 0x3e, 
	0xe6, 0x5b, 0x9d, 0xbe, 0x40, 0x55, 0x0c, 0x3e, 0x12, 0x20, 0xc8, 0xbe, 
	0x83, 0x33, 0x66, 0xbe, 0xad, 0x87, 0xdf, 0xbe, 0xc0, 0x18, 0x80, 0x3e, 
	0x67, 0x85, 0x91, 0xbc, 0xed, 0x24, 0xab, 0x3e, 0x36, 0xbc, 0x38, 0x3e, 
	0x00, 0x0d, 0x29, 0xbe, 0xd4, 0x65, 0x24, 0xbd, 0x0e, 0x60, 0x9d, 0xbe, 
	0xfa, 0xf4, 0x52, 0x3b, 0xe7, 0x7c, 0x53, 0xbe, 0x3a, 0x87, 0x2a, 0x3e, 
	0x68, 0x8d, 0x93, 0x3e, 0x9c, 0xdd, 0xb9, 0x3d, 0x51, 0xe9, 0xa1, 0x3e, 
	0xe0, 0x4f, 0x8a, 0xbd, 0x2c, 0xa5, 0xfd, 0x3d, 0xfa, 0xc7, 0xbe, 0xbe, 
	0x2d, 0x04, 0xdb, 0xbe, 0x50, 0xde, 0x42, 0x3d, 0x32, 0x1c, 0x34, 0xbe, 
	0xa4, 0x13, 0xe1, 0x3d, 0x59, 0x6b, 0x85, 0x3e, 0xb0, 0x3d, 0x86, 0xbe, 
	0x77, 0xef, 0xba, 0x3e, 0xf0, 0x10, 0x59, 0x3d, 0xc6, 0xf2, 0x3b, 0xbe, 
	0x62, 0x03, 0x09, 0x3e, 0xf9, 0x60, 0x9c, 0x3e, 0xce, 0x98, 0x08, 0x3f, 
	0x77, 0x54, 0x2f, 0x40, 0xee, 0x9e, 0x3b, 0x3e, 0x79, 0x72, 0x68, 0x3e, 
	0xb6, 0x0f, 0x17, 0x40, 0xbe, 0x1a, 0x35, 0x3f, 0x5c, 0x92, 0x99, 0x3e, 
	0x8a, 0xcb, 0x95, 0xbe, 0xb9, 0x16, 0xd5, 0x3f, 0xec, 0x65, 0x0a, 0x40, 
	0x43, 0x35, 0xeb, 0x3e, 0xb8, 0x6d, 0xb0, 0xbd, 0x54, 0x2e, 0x29, 0x40, 
	0xa8, 0x06, 0xfd, 0x3e, 0xf1, 0xe9, 0x31, 0x40, 0xe7, 0x66, 0xd6, 0x3e, 
	0x50, 0xe1, 0xd7, 0xbe, 0x97, 0x56, 0x6c, 0x3e, 0xc6, 0x79, 0x14, 0x3e, 
	0x78, 0x03, 0x12, 0xbe, 0x5f, 0x78, 0xdb, 0xbe, 0x0e, 0xa6, 0x7a, 0xbe, 
	0x38, 0x37, 0xf4, 0x3d, 0x0e, 0x76, 0x0e, 0x3e, 0xf7, 0xc3, 0x84, 0xbe, 
	0x3a, 0x3d, 0x05, 0x3e, 0xda, 0x6f, 0xab, 0x3c, 0xed, 0x44, 0x9b, 0x3e, 
	0xa0, 0x0d, 0x99, 0x3e, 0xa7, 0x07, 0xae, 0x3e, 0x8d, 0x70, 0x7c, 0x3d, 
	0x19, 0xf8, 0xa2, 0xbe, 0x96, 0x11, 0xc6, 0xbc, 0xb6, 0xff, 0xfb, 0x3d, 
	0x3f, 0x92, 0x05, 0x3e, 0x4a, 0x65, 0x5b, 0x3e, 0x80, 0xea, 0x89, 0xbe, 
	0x17, 0xf7, 0x4e, 0x3e, 0x3e, 0x58, 0x8b, 0x3d, 0xfa, 0xf8, 0x41, 0xbe, 
	0x00, 0xdc, 0x51, 0xbf, 0x52, 0x57, 0x9f, 0xbe, 0x1a, 0x17, 0x0a, 0xbe, 
	0xa4, 0x81, 0x85, 0x3d, 0x00, 0x33, 0xa6, 0x3e, 0x06, 0x66, 0x8c, 0x3d, 
	0x38, 0x35, 0x3e, 0xbe, 0x26, 0x24, 0x90, 0xbe, 0x98, 0x04, 0xc3, 0xbe, 
	0x7b, 0xb7, 0xad, 0xbd, 0x8b, 0xfe, 0x86, 0xbe, 0x1b, 0xea, 0xa1, 0x3e, 
	0xff, 0x75, 0xaf, 0x3e, 0xef, 0x7a, 0x84, 0x3d, 0x01, 0xfd, 0x47, 0x3e, 
	0x3c, 0x0f, 0x61, 0xbe, 0xbf, 0xf5, 0x0f, 0x3f, 0xbb, 0x90, 0x02, 0x3f, 
	0x34, 0x0a, 0x28, 0xbd, 0x96, 0x04, 0x04, 0xbe, 0xe6, 0x72, 0x23, 0x3e, 
	0x3f, 0xc8, 0xbf, 0xbe, 0xae, 0x5d, 0x32, 0xbf, 0x31, 0x36, 0xbf, 0x3e, 
	0x84, 0x85, 0xdd, 0xbe, 0xc4, 0x44, 0x7d, 0x3c, 0x25, 0xb1, 0x88, 0x3e, 
	0x24, 0xb3, 0xb7, 0xbe, 0xf5, 0x9f, 0x96, 0x3d, 0xab, 0xbd, 0x45, 0x3e, 
	0xb9, 0x56, 0x6b, 0xbe, 0xf0, 0x1c, 0xe6, 0xbd, 0x27, 0x01, 0x16, 0x3e, 
	0x4a, 0xd2, 0xdb, 0x3c, 0x5f, 0x00, 0x92, 0xbc, 0xdf, 0x19, 0x8c, 0x3e, 
	0xc6, 0x2f, 0xe6, 0xbd, 0x6a, 0xf6, 0x67, 0x3e, 0xdc, 0x5a, 0x2f, 0x3e, 
	0x98, 0x76, 0x36, 0xbd, 0x86, 0x91, 0x2a, 0xbe, 0x91, 0x3d, 0x4a, 0x40, 
	0x66, 0x0d, 0x97, 0x3e, 0xc3, 0xd4, 0x06, 0xbe, 0xc8, 0x24, 0xef, 0x3f, 
	0xbf, 0xf9, 0x1f, 0x3f, 0xf6, 0x0b, 0xfb, 0x3e, 0xc4, 0xd7, 0xda, 0xbe, 
	0x47, 0x96, 0xbe, 0x3f, 0xe6, 0xfc, 0xe8, 0x3f, 0xe6, 0xc0, 0xbb, 0x3e, 
	0x36, 0xb5, 0x41, 0xbe, 0x4d, 0x87, 0x0a, 0x40, 0x3f, 0xc1, 0x3a, 0xbe, 
	0x44, 0xd5, 0x3a, 0x40, 0x1c, 0x88, 0x2c, 0xbe, 0xba, 0xaa, 0x96, 0xbd, 
	0xf7, 0xf7, 0x06, 0xbe, 0xdc, 0x05, 0x87, 0x3e, 0xec, 0x12, 0x60, 0x3e, 
	0x49, 0x79, 0x55, 0xbe, 0x5d, 0x2e, 0x8c, 0xbe, 0xa1, 0x86, 0x83, 0x3e, 
	0xc8, 0x14, 0xe4, 0xbd, 0xee, 0x5c, 0x79, 0xbe, 0x89, 0x96, 0xe1, 0xbe, 
	0xe6, 0x44, 0xd0, 0xbd, 0x34, 0x48, 0xde, 0x3d, 0x06, 0xa1, 0xa7, 0x3e, 
	0xf8, 0xbd, 0xb2, 0x3e, 0x2d, 0xb7, 0x02, 0xbe, 0x1a, 0x85, 0xbc, 0x3e, 
	0xb6, 0x98, 0xdb, 0xbe, 0xdd, 0x40, 0xdb, 0x3e, 0x6a, 0x24, 0x3b, 0x3e, 
	0xba, 0xad, 0xce, 0xbe, 0xd8, 0x4b, 0x32, 0xbe, 0xac, 0xc7, 0x3a, 0xbe, 
	0x17, 0xf5, 0x46, 0xbe, 0xc9, 0x4a, 0x86, 0x3e, 0x36, 0xc3, 0x3d, 0x3e, 
	0x90, 0x82, 0x68, 0xbd, 0xb5, 0xe5, 0x72, 0xbe, 0x0e, 0xb1, 0x39, 0x3e, 
	0x10, 0xcc, 0x1c, 0xbe, 0xd0, 0x80, 0x94, 0x3c, 0x6e, 0x32, 0x07, 0x3e, 
	0x10, 0xa4, 0x0d, 0x3d, 0x57, 0x5e, 0xc2, 0xbe, 0x4c, 0xda, 0xc2, 0xbd, 
	0xf4, 0x0a, 0xee, 0x3d, 0xe2, 0x99, 0x15, 0x3e, 0x21, 0x7c, 0xcb, 0x3e, 
	0x98, 0xe4, 0x02, 0xbd, 0xb2, 0xf1, 0xbc, 0xbe, 0xeb, 0xb7, 0xad, 0xbe, 
	0xc4, 0x2e, 0x91, 0xbe, 0x44, 0x98, 0x7a, 0xbe, 0xc4, 0x00, 0xc6, 0xbe, 
	0x11, 0x9d, 0x62, 0xbe, 0xa4, 0x5d, 0x94, 0xbe, 0xcc, 0x8f, 0xcc, 0xbe, 
	0x60, 0x28, 0xc4, 0xbd, 0xd7, 0x81, 0xae, 0x3e, 0x4d, 0x60, 0xa1, 0xbd, 
	0xdd, 0xf5, 0x55, 0x40, 0x71, 0x2d, 0x1f, 0x3f, 0xb8, 0xa8, 0x1e, 0x3e, 
	0x98, 0xb4, 0x13, 0x40, 0x26, 0x6f, 0x09, 0x3f, 0x20, 0x39, 0x3b, 0x3e, 
	0x1a, 0xc0, 0x1c, 0xbe, 0xbb, 0x65, 0x82, 0x3f, 0x82, 0x3d, 0x10, 0x40, 
	0x95, 0x56, 0x66, 0x3e, 0xce, 0x30, 0x35, 0xbe, 0xfa, 0x5e, 0x0c, 0x40, 
	0x4a, 0x54, 0x8b, 0xbe, 0x40, 0xb4, 0x1a, 0x40, 0x8f, 0xf0, 0x84, 0xbe, 
	0x31, 0xdc, 0xc2, 0x3e, 0xac, 0x16, 0x4a, 0x40, 0xc6, 0x4c, 0x8e, 0x3e, 
	0xf4, 0x7f, 0x82, 0x3e, 0x92, 0x99, 0xc5, 0x3f, 0xe5, 0x95, 0x54, 0x3f, 
	0xca, 0x8b, 0xc4, 0x3e, 0x5e, 0x6a, 0xcc, 0xbe, 0xf6, 0xff, 0xd2, 0x3f, 
	0xfe, 0x20, 0x0e, 0x40, 0x56, 0xb0, 0xd9, 0x3b, 0x68, 0x38, 0x1d, 0xbd, 
	0xdf, 0xee, 0x2a, 0x40, 0x3d, 0x98, 0x89, 0xbe, 0x9f, 0xd0, 0x27, 0x40, 
	0x54, 0xf4, 0x84, 0xbe, 0x22, 0xf6, 0xff, 0xff, 0x10, 0x00, 0x00, 0x00, 
	0x0a, 0x00, 0x00, 0x00, 0x14, 0x00, 0x00, 0x00, 0x30, 0x00, 0x00, 0x00, 
	0x02, 0x00, 0x00, 0x00, 0x10, 0x00, 0x00, 0x00, 0x10, 0x00, 0x00, 0x00, 
	0x19, 0x00, 0x00, 0x00, 0x73, 0x65, 0x71, 0x75, 0x65, 0x6e, 0x74, 0x69, 
	0x61, 0x6c, 0x2f, 0x64, 0x65, 0x6e, 0x73, 0x65, 0x5f, 0x33, 0x2f, 0x4d, 
	0x61, 0x74, 0x4d, 0x75, 0x6c, 0x00, 0x00, 0x00, 0xa4, 0xf5, 0xff, 0xff, 
	0x9a, 0xf6, 0xff, 0xff, 0x04, 0x00, 0x00, 0x00, 0x00, 0x04, 0x00, 0x00, 
	0xe6, 0x42, 0xca, 0xbe, 0xe8, 0x8d, 0x4f, 0x3d, 0x8b, 0xf8, 0xb1, 0xbe, 
	0x8c, 0xd1, 0x9d, 0xbe, 0xdc, 0x28, 0x06, 0x3e, 0xcd, 0xc2, 0x82, 0x3e, 
	0x64, 0x98, 0x30, 0xbe, 0x7e, 0xfe, 0xb8, 0xbe, 0x82, 0xa9, 0xd0, 0x3f, 
	0x6d, 0xe2, 0x08, 0x3e, 0x8b, 0x56, 0xbe, 0xbe, 0xf7, 0x25, 0x41, 0xbe, 
	0xc2, 0x5e, 0xb7, 0x3d, 0xb0, 0x70, 0xb2, 0xbe, 0xa9, 0x14, 0x89, 0x3e, 
	0x2b, 0x63, 0x68, 0xbf, 0x19, 0xce, 0x70, 0xbe, 0x52, 0x8a, 0x39, 0x3e, 
	0x24, 0x20, 0x52, 0xbe, 0xb1, 0xe8, 0x71, 0xbe, 0xc7, 0xd1, 0x63, 0x3e, 
	0x0b, 0x72, 0x07, 0x3e, 0x98, 0x12, 0x31, 0x3d, 0x7c, 0x1e, 0x94, 0xbd, 
	0x41, 0x41, 0xc1, 0x3f, 0x87, 0xed, 0x52, 0xbd, 0x70, 0x0f, 0x7f, 0x3c, 
	0x94, 0x57, 0x9f, 0xbd, 0xb6, 0xea, 0xb6, 0xbd, 0x32, 0x75, 0x63, 0x3e, 
	0xb7, 0x4e, 0xb8, 0x3e, 0xca, 0x56, 0xa5, 0xbf, 0xd0, 0x21, 0xf6, 0x3c, 
	0x80, 0x15, 0x5b, 0xbc, 0x40, 0xd4, 0x26, 0xbe, 0x6b, 0x7f, 0xa9, 0x3e, 
	0xb8, 0xb8, 0xf7, 0xbc, 0xac, 0x25, 0x32, 0x3e, 0xe2, 0x18, 0x25, 0xbe, 
	0x9d, 0x3d, 0x48, 0xbe, 0x1b, 0xde, 0x0f, 0x40, 0x14, 0x76, 0x2b, 0x3e, 
	0x88, 0x58, 0xbe, 0xbe, 0x89, 0xd8, 0xb9, 0x3e, 0x51, 0x02, 0x71, 0x3e, 
	0x90, 0xdf, 0x17, 0xbe, 0x46, 0xd1, 0x8d, 0xbe, 0xfa, 0x9a, 0x68, 0xbf, 
	0x19, 0xe7, 0xcb, 0xbe, 0x9a, 0x55, 0x9b, 0xbe, 0x17, 0x7b, 0xda, 0x3e, 
	0x95, 0xe6, 0xd2, 0x3e, 0x22, 0x62, 0xc1, 0xbe, 0x00, 0xb1, 0x32, 0x3e, 
	0xcb, 0xa9, 0xcf, 0xbe, 0xd0, 0x0d, 0x59, 0x3d, 0x9c, 0xcb, 0x8e, 0xbe, 
	0x6e, 0xf9, 0xb6, 0xbe, 0x36, 0x9a, 0x05, 0x3d, 0x74, 0x41, 0xbf, 0x3d, 
	0x19, 0x7b, 0x88, 0xbe, 0x35, 0xa3, 0xa3, 0x3e, 0xba, 0xf8, 0x0a, 0xbe, 
	0x4a, 0x5b, 0xa8, 0x3e, 0xde, 0xf8, 0x6e, 0x3e, 0x91, 0xd8, 0xc4, 0x3e, 
	0x61, 0x09, 0xc2, 0x3d, 0xca, 0xd4, 0x4e, 0x3e, 0xac, 0x08, 0xab, 0x3e, 
	0x13, 0x90, 0x48, 0xbe, 0xb0, 0x1c, 0x89, 0x3c, 0x9e, 0x25, 0x64, 0xbe, 
	0x35, 0x70, 0x0d, 0x40, 0x6c, 0xa3, 0x0b, 0xbe, 0x98, 0xdf, 0x85, 0x3e, 
	0xad, 0x01, 0xd2, 0x3e, 0x44, 0x2a, 0xc2, 0x3c, 0x69, 0x15, 0xb9, 0x3e, 
	0x97, 0xa8, 0xb0, 0x3e, 0x05, 0xe9, 0xbc, 0xbf, 0x40, 0xc8, 0xf8, 0x3b, 
	0x6c, 0x60, 0xd1, 0x3d, 0x7b, 0x00, 0x5f, 0xbc, 0xa4, 0xf0, 0xde, 0x3d, 
	0x88, 0x73, 0x58, 0x3e, 0x4f, 0x49, 0x8f, 0xbc, 0xba, 0x3b, 0xb2, 0xbe, 
	0xbe, 0xe1, 0x22, 0x3e, 0x1d, 0x8b, 0x02, 0x40, 0x6b, 0x88, 0x80, 0xbe, 
	0x5a, 0x25, 0x5f, 0xbc, 0xdb, 0xca, 0x52, 0xbe, 0xb1, 0x6a, 0xb0, 0x3e, 
	0x07, 0xde, 0xc3, 0x3e, 0x9e, 0x51, 0x61, 0x3e, 0x9a, 0xd0, 0xb6, 0xbf, 
	0x11, 0xcf, 0xda, 0x3e, 0x2a, 0xae, 0x49, 0x3e, 0x2e, 0x53, 0x14, 0x3e, 
	0x56, 0x18, 0x1c, 0x3e, 0xde, 0x4d, 0xc8, 0x3e, 0x06, 0xef, 0xa0, 0xbe, 
	0xbf, 0x79, 0xac, 0x3e, 0xcf, 0x45, 0xab, 0xbe, 0xc6, 0xc5, 0x09, 0x40, 
	0x36, 0xa0, 0x40, 0x3e, 0x1f, 0x52, 0xe4, 0x3d, 0x0a, 0xf0, 0xd5, 0xbe, 
	0x99, 0x18, 0x9d, 0x3e, 0x6e, 0xad, 0x1e, 0x3e, 0x29, 0x96, 0x6c, 0xbe, 
	0xd4, 0xbb, 0x87, 0xbf, 0x04, 0x57, 0xb9, 0xbe, 0xff, 0xb5, 0xa5, 0xbe, 
	0xc0, 0x59, 0x56, 0xbd, 0xc1, 0x4a, 0xc9, 0x3e, 0x54, 0x67, 0xf8, 0x3d, 
	0x86, 0x5d, 0x90, 0xbe, 0x30, 0x3f, 0x0f, 0xbd, 0xd0, 0x2f, 0xa9, 0xbe, 
	0x7d, 0x43, 0xa7, 0xbe, 0xd9, 0x72, 0xcb, 0xbe, 0xac, 0x5b, 0x8b, 0xbe, 
	0x00, 0x1e, 0x01, 0x3a, 0x15, 0xb9, 0xd4, 0x3e, 0xfa, 0xfc, 0x68, 0x3e, 
	0xd1, 0xb4, 0xaa, 0x3e, 0xcc, 0xc4, 0xcb, 0xbe, 0x2c, 0xef, 0x95, 0xbd, 
	0x3e, 0xfe, 0xcc, 0xbe, 0x60, 0x97, 0x29, 0x3d, 0x14, 0xf8, 0xcd, 0x3d, 
	0x7f, 0x27, 0x02, 0xc0, 0x63, 0xb8, 0x8e, 0x3e, 0xea, 0xb4, 0x96, 0xbe, 
	0xcc, 0x6e, 0x99, 0xbe, 0x0b, 0x7c, 0x2f, 0x3f, 0x09, 0xb4, 0x3a, 0x3f, 
	0x7e, 0x23, 0x99, 0xbd, 0x97, 0xc3, 0xce, 0x3e, 0x4f, 0x5e, 0xb9, 0x3d, 
	0x06, 0xb2, 0x50, 0x3e, 0x51, 0xc2, 0xcf, 0x3e, 0xa5, 0xf0, 0xcf, 0x3e, 
	0x39, 0x3c, 0x83, 0xbe, 0x80, 0x87, 0xd3, 0x3c, 0x2b, 0xbe, 0x57, 0x3e, 
	0xb0, 0x09, 0x02, 0xbd, 0x11, 0xfe, 0x0b, 0xbe, 0xf9, 0x5f, 0x6a, 0xbe, 
	0xdc, 0xbe, 0x18, 0xbe, 0x8f, 0x7a, 0xa4, 0x3e, 0x4c, 0x3d, 0xfc, 0x3f, 
	0x0e, 0xd8, 0x26, 0x3e, 0xb0, 0x87, 0x10, 0x3d, 0xf4, 0xc2, 0x95, 0x3d, 
	0xed, 0x7e, 0xb0, 0x3e, 0x3f, 0x50, 0xd0, 0xbe, 0xd4, 0x3d, 0xae, 0xbe, 
	0x48, 0xbd, 0x66, 0xbf, 0x0c, 0xe7, 0xa5, 0xbe, 0xac, 0x5d, 0xbd, 0x3d, 
	0x70, 0xc7, 0x9b, 0x3d, 0x48, 0xcb, 0x2d, 0x3d, 0xf9, 0xe0, 0xbc, 0xbd, 
	0xe1, 0xeb, 0x25, 0x3e, 0x6c, 0xcb, 0x94, 0x3d, 0xa0, 0xe5, 0x70, 0xbc, 
	0xc0, 0x6e, 0x00, 0x40, 0x38, 0x9e, 0xac, 0xbd, 0xb2, 0xc8, 0x97, 0x3e, 
	0xf4, 0x37, 0xa4, 0x3d, 0x42, 0xf8, 0xfe, 0x3d, 0xf7, 0x11, 0xb5, 0x3e, 
	0xeb, 0x0d, 0x98, 0x3e, 0xca, 0x84, 0xc3, 0xbf, 0x87, 0x3c, 0xbd, 0xbe, 
	0xac, 0xc8, 0xc4, 0xbe, 0x00, 0xee, 0x51, 0x3a, 0x40, 0xd0, 0x84, 0xbb, 
	0x26, 0xeb, 0x34, 0x3e, 0x00, 0x7e, 0xd5, 0x3c, 0x00, 0xb5, 0xe3, 0xbb, 
	0xb0, 0xff, 0x00, 0xbe, 0xae, 0xec, 0xca, 0xbe, 0x14, 0x1b, 0xc2, 0xbd, 
	0x6f, 0xbb, 0xce, 0xbe, 0x3d, 0xf6, 0xc5, 0x3e, 0x3a, 0x49, 0x52, 0x3e, 
	0x5b, 0x87, 0xaa, 0x3e, 0xe0, 0x2c, 0xa9, 0xbe, 0x36, 0x5a, 0xb2, 0xbe, 
	0x36, 0x12, 0x7f, 0x3e, 0xbe, 0xaa, 0x2c, 0x3e, 0xbf, 0x4b, 0xa9, 0xbd, 
	0x19, 0xff, 0xa1, 0x3e, 0x04, 0xae, 0xfd, 0x3e, 0xbd, 0xb9, 0x95, 0x3e, 
	0x80, 0x70, 0xd1, 0x3b, 0x24, 0xad, 0xbb, 0xbd, 0x5b, 0x86, 0x02, 0x40, 
	0x10, 0x80, 0xd6, 0xbe, 0x0b, 0xd5, 0x09, 0xbe, 0xf0, 0xd4, 0xcf, 0x3c, 
	0xa1, 0xfe, 0xc8, 0x3d, 0x28, 0x0f, 0x9f, 0xbd, 0x3c, 0x42, 0x25, 0xbe, 
	0x1a, 0x01, 0x9d, 0xbf, 0x85, 0x10, 0x91, 0x3e, 0x5e, 0xb1, 0x6b, 0x3e, 
	0x51, 0xc4, 0x50, 0xbe, 0xf0, 0xa6, 0xd0, 0x3c, 0x31, 0x4a, 0xf8, 0x3d, 
	0xf6, 0x9d, 0x84, 0xbe, 0x58, 0xd1, 0xb7, 0xbe, 0xd6, 0xc1, 0x2f, 0x3e, 
	0xee, 0xf6, 0x22, 0x3d, 0xab, 0x18, 0xce, 0x3d, 0x96, 0xa9, 0x0b, 0x3e, 
	0x65, 0xa8, 0xad, 0x3e, 0xd5, 0x17, 0x91, 0xbd, 0x83, 0x85, 0xb2, 0xbe, 
	0x80, 0x8d, 0x5f, 0x3c, 0x0f, 0x8f, 0x45, 0xbd, 0x55, 0xe6, 0x86, 0xbe, 
	0xb9, 0x1b, 0xc4, 0xbe, 0x5d, 0xa9, 0xc6, 0xbe, 0x76, 0x58, 0x59, 0x3e, 
	0xcb, 0xe7, 0x26, 0xc0, 0xfc, 0xb5, 0x15, 0xbf, 0x60, 0x33, 0x7b, 0xbd, 
	0x0d, 0x23, 0xd5, 0xbe, 0x79, 0x10, 0x0f, 0x40, 0x51, 0x73, 0x0a, 0xbb, 
	0xda, 0x10, 0xd5, 0xbd, 0x72, 0xbe, 0x82, 0xbe, 0x6d, 0x35, 0x0c, 0xbf, 
	0x0f, 0xe2, 0xad, 0x3e, 0x72, 0x4f, 0x38, 0xbe, 0xc6, 0x87, 0x37, 0xbf, 
	0x48, 0xe7, 0x35, 0xbd, 0x02, 0x37, 0x48, 0xbe, 0xcd, 0xa3, 0xb0, 0x3e, 
	0xb6, 0x42, 0x61, 0x3e, 0x48, 0xc6, 0xf2, 0x3d, 0xa6, 0xf7, 0x4b, 0xbe, 
	0xac, 0x12, 0x9b, 0x3d, 0x3a, 0xbe, 0xdc, 0xbe, 0xed, 0x3a, 0xc4, 0xbd, 
	0x68, 0xc4, 0xbe, 0xbd, 0x48, 0x98, 0xa8, 0x3e, 0xc0, 0xd6, 0xc4, 0xbc, 
	0x5f, 0x7a, 0xc0, 0xbd, 0x3f, 0x31, 0x7f, 0xbe, 0x92, 0xfe, 0xa3, 0xbe, 
	0xc3, 0x06, 0xab, 0x3e, 0x72, 0xfa, 0xff, 0xff, 0x10, 0x00, 0x00, 0x00, 
	0x09, 0x00, 0x00, 0x00, 0x14, 0x00, 0x00, 0x00, 0x30, 0x00, 0x00, 0x00, 
	0x02, 0x00, 0x00, 0x00, 0x10, 0x00, 0x00, 0x00, 0x10, 0x00, 0x00, 0x00, 
	0x19, 0x00, 0x00, 0x00, 0x73, 0x65, 0x71, 0x75, 0x65, 0x6e, 0x74, 0x69, 
	0x61, 0x6c, 0x2f, 0x64, 0x65, 0x6e, 0x73, 0x65, 0x5f, 0x32, 0x2f, 0x4d, 
	0x61, 0x74, 0x4d, 0x75, 0x6c, 0x00, 0x00, 0x00, 0xf4, 0xf9, 0xff, 0xff, 
	0xea, 0xfa, 0xff, 0xff, 0x04, 0x00, 0x00, 0x00, 0x00, 0x02, 0x00, 0x00, 
	0xcc, 0x10, 0x81, 0xbe, 0x48, 0xb4, 0x3f, 0x3e, 0x08, 0x9e, 0x01, 0x3e, 
	0xc8, 0x5f, 0x52, 0x3e, 0x48, 0x56, 0x65, 0xbe, 0x00, 0xaf, 0xdc, 0xbc, 
	0x48, 0x28, 0xe5, 0x3e, 0xa0, 0x9e, 0x99, 0xbd, 0xb0, 0x9d, 0x3f, 0xbe, 
	0xf8, 0x6f, 0x91, 0xbe, 0xc0, 0xa8, 0xec, 0x3d, 0xf0, 0xc5, 0xfa, 0xbe, 
	0x08, 0xaa, 0x8e, 0x3e, 0xd0, 0x61, 0xe5, 0xbd, 0x30, 0xcc, 0xe5, 0x3e, 
	0x90, 0xe1, 0xaa, 0xbd, 0x68, 0xf8, 0xf6, 0xbe, 0x28, 0xe5, 0x54, 0xbe, 
	0xb0, 0x35, 0x56, 0x3e, 0xd0, 0xea, 0xea, 0x3e, 0xe8, 0xa8, 0x61, 0xbe, 
	0xd8, 0x55, 0xd9, 0x3e, 0xf0, 0x33, 0xd8, 0xbd, 0x40, 0x1d, 0xd4, 0x3e, 
	0xfc, 0x79, 0xcc, 0xbe, 0x5c, 0xf5, 0xae, 0x3e, 0x18, 0x68, 0x8b, 0x3e, 
	0x50, 0x72, 0x74, 0xbe, 0x40, 0xeb, 0x28, 0x3e, 0x60, 0x94, 0x67, 0xbe, 
	0xb0, 0xf9, 0x66, 0x3e, 0x50, 0x62, 0xe6, 0x3d, 0xef, 0xac, 0xf3, 0x3f, 
	0x00, 0x81, 0xb1, 0xbd, 0x50, 0x89, 0xa8, 0x3e, 0xd2, 0x0a, 0xc4, 0xbf, 
	0x54, 0xae, 0xb6, 0x3e, 0xa8, 0x3b, 0x1f, 0x3e, 0x60, 0xd5, 0x67, 0xbe, 
	0x60, 0xe4, 0x35, 0xbe, 0xbc, 0xdb, 0x0b, 0x40, 0xd0, 0x03, 0x8f, 0xbd, 
	0xd8, 0x2c, 0xdd, 0xbe, 0x44, 0xdd, 0x7d, 0x3e, 0xb4, 0x74, 0xe2, 0xbe, 
	0xe4, 0xa5, 0xb1, 0x3e, 0x10, 0xb3, 0x17, 0xbe, 0xa0, 0x1c, 0xd6, 0x3e, 
	0x84, 0x05, 0x88, 0xbe, 0x00, 0x0f, 0xfe, 0x3b, 0x68, 0x6c, 0xae, 0xbe, 
	0x50, 0x5c, 0x0a, 0x3e, 0xb0, 0x51, 0x45, 0x3e, 0xd4, 0x34, 0xd7, 0xbe, 
	0x98, 0x69, 0x25, 0xbe, 0x64, 0xda, 0xd3, 0xbe, 0x28, 0x12, 0x67, 0xbe, 
	0xe0, 0xb7, 0xb3, 0xbd, 0x48, 0x0a, 0xb0, 0xbe, 0xc0, 0x3b, 0x98, 0xbe, 
	0xf8, 0x7c, 0x91, 0x3e, 0xe0, 0x80, 0x81, 0x3e, 0x78, 0x67, 0x8d, 0xbe, 
	0xa0, 0x3a, 0xe1, 0xbe, 0x19, 0xeb, 0xfb, 0xbd, 0xa8, 0xd7, 0x7a, 0x3e, 
	0xb0, 0x9b, 0x3e, 0x3e, 0x94, 0x4c, 0x99, 0x3f, 0x58, 0x77, 0xf8, 0x3e, 
	0xc4, 0xdf, 0xd4, 0xbe, 0x10, 0x00, 0xac, 0x3e, 0x70, 0x82, 0x73, 0x3e, 
	0xef, 0x40, 0x9f, 0xbe, 0x00, 0xf8, 0x50, 0x3b, 0x34, 0x6c, 0xa0, 0x3e, 
	0x6c, 0x9d, 0xe3, 0x3f, 0xe4, 0xc5, 0x9b, 0x3e, 0x60, 0x7d, 0xb8, 0x3d, 
	0xa8, 0x01, 0x69, 0x3e, 0x8c, 0x28, 0xeb, 0xbe, 0xf9, 0x5e, 0x00, 0x40, 
	0x60, 0x41, 0xe7, 0xbe, 0xe0, 0x80, 0x63, 0xbd, 0x3d, 0x42, 0xc3, 0xbe, 
	0x08, 0x80, 0x6d, 0xbe, 0xac, 0x74, 0xb5, 0x3e, 0x24, 0xb3, 0x97, 0x3e, 
	0x40, 0x26, 0x1d, 0xbd, 0x5c, 0x27, 0xfe, 0xbe, 0xc4, 0xc8, 0xd4, 0x3e, 
	0x60, 0xff, 0xde, 0xbe, 0x30, 0xd2, 0xe2, 0x3d, 0xa8, 0x67, 0xda, 0x3e, 
	0x28, 0x82, 0x62, 0x3e, 0xc0, 0x3a, 0x2c, 0x3d, 0x58, 0xe1, 0x0b, 0x3e, 
	0x0b, 0x95, 0xe5, 0x3f, 0xb8, 0x29, 0x7d, 0xbe, 0x90, 0x8a, 0x6b, 0x3e, 
	0x88, 0x7d, 0x26, 0x3f, 0x90, 0xae, 0x8c, 0x3e, 0xd8, 0x97, 0xde, 0x3e, 
	0xd8, 0xf2, 0x93, 0xbe, 0x64, 0xf0, 0xa4, 0x3e, 0xf0, 0xed, 0xe9, 0xbe, 
	0x00, 0x91, 0xca, 0xbb, 0xfc, 0x4d, 0xf6, 0xbe, 0x54, 0xbb, 0x86, 0x3e, 
	0x98, 0x26, 0xa6, 0xbe, 0xbc, 0x71, 0xcb, 0xbe, 0x40, 0xa7, 0x9f, 0x3c, 
	0xbc, 0xba, 0xd0, 0xbe, 0x08, 0x74, 0x91, 0xbe, 0x58, 0xaa, 0xc9, 0xbe, 
	0x44, 0x67, 0x83, 0x3e, 0xf4, 0xdc, 0xd4, 0xbe, 0xc8, 0xd6, 0x8b, 0x3e, 
	0x40, 0x02, 0x83, 0x3e, 0xcc, 0xa2, 0xaa, 0xbe, 0x00, 0x90, 0x29, 0x3b, 
	0x64, 0xca, 0xd1, 0x3e, 0xc0, 0x87, 0x87, 0x3c, 0x88, 0x58, 0xaa, 0x3e, 
	0xab, 0x03, 0xf0, 0xbe, 0xc0, 0xcc, 0xf0, 0xbe, 0x7c, 0x5b, 0xb0, 0x3e, 
	0xd0, 0xf6, 0x1b, 0xbe, 0x8c, 0xac, 0xf2, 0xbe, 0xc2, 0xfc, 0xff, 0xff, 
	0x10, 0x00, 0x00, 0x00, 0x08, 0x00, 0x00, 0x00, 0x14, 0x00, 0x00, 0x00, 
	0x30, 0x00, 0x00, 0x00, 0x02, 0x00, 0x00, 0x00, 0x10, 0x00, 0x00, 0x00, 
	0x08, 0x00, 0x00, 0x00, 0x19, 0x00, 0x00, 0x00, 0x73, 0x65, 0x71, 0x75, 
	0x65, 0x6e, 0x74, 0x69, 0x61, 0x6c, 0x2f, 0x64, 0x65, 0x6e, 0x73, 0x65, 
	0x5f, 0x31, 0x2f, 0x4d, 0x61, 0x74, 0x4d, 0x75, 0x6c, 0x00, 0x00, 0x00, 
	0x44, 0xfc, 0xff, 0xff, 0x3a, 0xfd, 0xff, 0xff, 0x04, 0x00, 0x00, 0x00, 
	0x20, 0x00, 0x00, 0x00, 0xc2, 0xf5, 0xf3, 0x3b, 0x08, 0x88, 0xd9, 0xbd, 
	0xf6, 0x56, 0x50, 0xbf, 0x58, 0xff, 0x8a, 0xbc, 0x70, 0x9f, 0xa9, 0xbd, 
	0x38, 0x39, 0x08, 0xbf, 0xfb, 0x88, 0xf1, 0xbe, 0xd3, 0x19, 0xda, 0xbe, 
	0x32, 0xfd, 0xff, 0xff, 0x10, 0x00, 0x00, 0x00, 0x07, 0x00, 0x00, 0x00, 
	0x14, 0x00, 0x00, 0x00, 0x2c, 0x00, 0x00, 0x00, 0x02, 0x00, 0x00, 0x00, 
	0x08, 0x00, 0x00, 0x00, 0x01, 0x00, 0x00, 0x00, 0x17, 0x00, 0x00, 0x00, 
	0x73, 0x65, 0x71, 0x75, 0x65, 0x6e, 0x74, 0x69, 0x61, 0x6c, 0x2f, 0x64, 
	0x65, 0x6e, 0x73, 0x65, 0x2f, 0x4d, 0x61, 0x74, 0x4d, 0x75, 0x6c, 0x00, 
	0xb0, 0xfc, 0xff, 0xff, 0xa6, 0xfd, 0xff, 0xff, 0x04, 0x00, 0x00, 0x00, 
	0x04, 0x00, 0x00, 0x00, 0xca, 0xea, 0xc5, 0x40, 0x82, 0xfd, 0xff, 0xff, 
	0x10, 0x00, 0x00, 0x00, 0x06, 0x00, 0x00, 0x00, 0x10, 0x00, 0x00, 0x00, 
	0x44, 0x00, 0x00, 0x00, 0x01, 0x00, 0x00, 0x00, 0x01, 0x00, 0x00, 0x00, 
	0x32, 0x00, 0x00, 0x00, 0x73, 0x65, 0x71, 0x75, 0x65, 0x6e, 0x74, 0x69, 
	0x61, 0x6c, 0x2f, 0x64, 0x65, 0x6e, 0x73, 0x65, 0x5f, 0x34, 0x2f, 0x42, 
	0x69, 0x61, 0x73, 0x41, 0x64, 0x64, 0x2f, 0x52, 0x65, 0x61, 0x64, 0x56, 
	0x61, 0x72, 0x69, 0x61, 0x62, 0x6c, 0x65, 0x4f, 0x70, 0x2f, 0x72, 0x65, 
	0x73, 0x6f, 0x75, 0x72, 0x63, 0x65, 0x00, 0x00, 0x18, 0xfd, 0xff, 0xff, 
	0x0e, 0xfe, 0xff, 0xff, 0x04, 0x00, 0x00, 0x00, 0x40, 0x00, 0x00, 0x00, 
	0x79, 0xe6, 0x2b, 0xbd, 0x34, 0x51, 0x3d, 0x3b, 0x9c, 0xcc, 0xc5, 0x40, 
	0x61, 0x15, 0x1f, 0xbd, 0x00, 0x00, 0x00, 0x00, 0x26, 0xe1, 0xc5, 0x40, 
	0xee, 0x03, 0xfa, 0xbc, 0xd3, 0x23, 0xa3, 0xbd, 0x3e, 0xa2, 0x23, 0xbe, 
	0x02, 0x46, 0x24, 0xbc, 0x71, 0xd3, 0xc5, 0x40, 0xc8, 0xe7, 0x9a, 0xbe, 
	0x00, 0x00, 0x00, 0x00, 0x00, 0x00, 0x00, 0x00, 0xdf, 0xad, 0xc6, 0x40, 
	0xff, 0xe6, 0xc5, 0x40, 0x26, 0xfe, 0xff, 0xff, 0x10, 0x00, 0x00, 0x00, 
	0x05, 0x00, 0x00, 0x00, 0x10, 0x00, 0x00, 0x00, 0x44, 0x00, 0x00, 0x00, 
	0x01, 0x00, 0x00, 0x00, 0x10, 0x00, 0x00, 0x00, 0x32, 0x00, 0x00, 0x00, 
	0x73, 0x65, 0x71, 0x75, 0x65, 0x6e, 0x74, 0x69, 0x61, 0x6c, 0x2f, 0x64, 
	0x65, 0x6e, 0x73, 0x65, 0x5f, 0x33, 0x2f, 0x42, 0x69, 0x61, 0x73, 0x41, 
	0x64, 0x64, 0x2f, 0x52, 0x65, 0x61, 0x64, 0x56, 0x61, 0x72, 0x69, 0x61, 
	0x62, 0x6c, 0x65, 0x4f, 0x70, 0x2f, 0x72, 0x65, 0x73, 0x6f, 0x75, 0x72, 
	0x63, 0x65, 0x00, 0x00, 0xbc, 0xfd, 0xff, 0xff, 0xb2, 0xfe, 0xff, 0xff, 
	0x04, 0x00, 0x00, 0x00, 0x40, 0x00, 0x00, 0x00, 0x63, 0x50, 0xc3, 0x40, 
	0xe1, 0x28, 0xb6, 0x40, 0x59, 0x53, 0xc4, 0x40, 0xa9, 0x4a, 0x9f, 0xbc, 
	0x1d, 0x54, 0xc5, 0x40, 0x2b, 0x3a, 0xc5, 0x40, 0x4d, 0xae, 0xc3, 0x40, 
	0x00, 0x00, 0x00, 0x00, 0xc1, 0xdd, 0xbe, 0x3e, 0xae, 0x17, 0xc7, 0x40, 
	0x63, 0xd4, 0xc4, 0x40, 0x00, 0x00, 0x00, 0x00, 0x3f, 0xf1, 0xc3, 0x40, 
	0x33, 0x3d, 0x08, 0xbe, 0x10, 0x5a, 0xc0, 0x40, 0xda, 0xb1, 0xd9, 0xbd, 
	0xca, 0xfe, 0xff, 0xff, 0x10, 0x00, 0x00, 0x00, 0x04, 0x00, 0x00, 0x00, 
	0x10, 0x00, 0x00, 0x00, 0x44, 0x00, 0x00, 0x00, 0x01, 0x00, 0x00, 0x00, 
	0x10, 0x00, 0x00, 0x00, 0x32, 0x00, 0x00, 0x00, 0x73, 0x65, 0x71, 0x75, 
	0x65, 0x6e, 0x74, 0x69, 0x61, 0x6c, 0x2f, 0x64, 0x65, 0x6e, 0x73, 0x65, 
	0x5f, 0x32, 0x2f, 0x42, 0x69, 0x61, 0x73, 0x41, 0x64, 0x64, 0x2f, 0x52, 
	0x65, 0x61, 0x64, 0x56, 0x61, 0x72, 0x69, 0x61, 0x62, 0x6c, 0x65, 0x4f, 
	0x70, 0x2f, 0x72, 0x65, 0x73, 0x6f, 0x75, 0x72, 0x63, 0x65, 0x00, 0x00, 
	0x60, 0xfe, 0xff, 0xff, 0x56, 0xff, 0xff, 0xff, 0x04, 0x00, 0x00, 0x00, 
	0x40, 0x00, 0x00, 0x00, 0x00, 0x00, 0x00, 0x00, 0x00, 0x00, 0x00, 0x00, 
	0xa9, 0x6e, 0x9b, 0xbc, 0x00, 0x00, 0x00, 0x00, 0x21, 0x14, 0x87, 0x3d, 
	0xfb, 0x15, 0xae, 0x40, 0x00, 0x00, 0x00, 0x00, 0x00, 0x00, 0x00, 0x00, 
	0x54, 0xf3, 0xc7, 0x40, 0x18, 0xb7, 0xc4, 0x40, 0x8f, 0xb3, 0x91, 0x40, 
	0x00, 0x00, 0x00, 0x00, 0xfc, 0x97, 0xad, 0x40, 0x00, 0x00, 0x00, 0x00, 
	0x00, 0x00, 0x00, 0x00, 0xe5, 0xf5, 0xb5, 0xc0, 0x6e, 0xff, 0xff, 0xff, 
	0x10, 0x00, 0x00, 0x00, 0x03, 0x00, 0x00, 0x00, 0x10, 0x00, 0x00, 0x00, 
	0x48, 0x00, 0x00, 0x00, 0x01, 0x00, 0x00, 0x00, 0x10, 0x00, 0x00, 0x00, 
	0x32, 0x00, 0x00, 0x00, 0x73, 0x65, 0x71, 0x75, 0x65, 0x6e, 0x74, 0x69, 
	0x61, 0x6c, 0x2f, 0x64, 0x65, 0x6e, 0x73, 0x65, 0x5f, 0x31, 0x2f, 0x42, 
	0x69, 0x61, 0x73, 0x41, 0x64, 0x64, 0x2f, 0x52, 0x65, 0x61, 0x64, 0x56, 
	0x61, 0x72, 0x69, 0x61, 0x62, 0x6c, 0x65, 0x4f, 0x70, 0x2f, 0x72, 0x65, 
	0x73, 0x6f, 0x75, 0x72, 0x63, 0x65, 0x00, 0x00, 0x04, 0x00, 0x06, 0x00, 
	0x04, 0x00, 0x00, 0x00, 0x00, 0x00, 0x06, 0x00, 0x08, 0x00, 0x04, 0x00, 
	0x06, 0x00, 0x00, 0x00, 0x04, 0x00, 0x00, 0x00, 0x20, 0x00, 0x00, 0x00, 
	0xb2, 0x1a, 0x01, 0x41, 0x00, 0x00, 0x00, 0x00, 0x00, 0x00, 0x00, 0x00, 
	0xc7, 0xa5, 0xb8, 0x40, 0x00, 0x00, 0x00, 0x00, 0x00, 0x00, 0x00, 0x00, 
	0x00, 0x00, 0x00, 0x00, 0x00, 0x00, 0x00, 0x00, 0x00, 0x00, 0x0e, 0x00, 
	0x14, 0x00, 0x04, 0x00, 0x00, 0x00, 0x08, 0x00, 0x0c, 0x00, 0x10, 0x00, 
	0x0e, 0x00, 0x00, 0x00, 0x10, 0x00, 0x00, 0x00, 0x02, 0x00, 0x00, 0x00, 
	0x10, 0x00, 0x00, 0x00, 0x44, 0x00, 0x00, 0x00, 0x01, 0x00, 0x00, 0x00, 
	0x08, 0x00, 0x00, 0x00, 0x30, 0x00, 0x00, 0x00, 0x73, 0x65, 0x71, 0x75, 
	0x65, 0x6e, 0x74, 0x69, 0x61, 0x6c, 0x2f, 0x64, 0x65, 0x6e, 0x73, 0x65, 
	0x2f, 0x42, 0x69, 0x61, 0x73, 0x41, 0x64, 0x64, 0x2f, 0x52, 0x65, 0x61, 
	0x64, 0x56, 0x61, 0x72, 0x69, 0x61, 0x62, 0x6c, 0x65, 0x4f, 0x70, 0x2f, 
	0x72, 0x65, 0x73, 0x6f, 0x75, 0x72, 0x63, 0x65, 0x00, 0x00, 0x00, 0x00, 
	0xa4, 0xff, 0xff, 0xff, 0x14, 0x00, 0x18, 0x00, 0x04, 0x00, 0x00, 0x00, 
	0x08, 0x00, 0x0c, 0x00, 0x10, 0x00, 0x00, 0x00, 0x00, 0x00, 0x14, 0x00, 
	0x14, 0x00, 0x00, 0x00, 0x14, 0x00, 0x00, 0x00, 0x01, 0x00, 0x00, 0x00, 
	0x18, 0x00, 0x00, 0x00, 0x30, 0x00, 0x00, 0x00, 0x20, 0x00, 0x00, 0x00, 
	0x02, 0x00, 0x00, 0x00, 0x01, 0x00, 0x00, 0x00, 0x01, 0x00, 0x00, 0x00, 
	0x0b, 0x00, 0x00, 0x00, 0x64, 0x65, 0x6e, 0x73, 0x65, 0x5f, 0x69, 0x6e, 
	0x70, 0x75, 0x74, 0x00, 0x02, 0x00, 0x00, 0x00, 0xff, 0xff, 0xff, 0xff, 
	0x01, 0x00, 0x00, 0x00, 0xfc, 0xff, 0xff, 0xff, 0x04, 0x00, 0x04, 0x00, 
	0x04, 0x00, 0x00, 0x00
};
const int model_data_len = 5248;