unsigned char sine_model_quantized_tflite[] = {
  0x20, 0x00, 0x00, 0x00, 0x54, 0x46, 0x4c, 0x33, 0x00, 0x00, 0x00, 0x00,
  0x00, 0x00, 0x12, 0x00, 0x1c, 0x00, 0x04, 0x00, 0x08, 0x00, 0x0c, 0x00,
  0x10, 0x00, 0x14, 0x00, 0x00, 0x00, 0x18, 0x00, 0x12, 0x00, 0x00, 0x00,
  0x03, 0x00, 0x00, 0x00, 0x04, 0x09, 0x00, 0x00, 0x30, 0x04, 0x00, 0x00,
  0x18, 0x04, 0x00, 0x00, 0x3c, 0x00, 0x00, 0x00, 0x04, 0x00, 0x00, 0x00,
  0x01, 0x00, 0x00, 0x00, 0x0c, 0x00, 0x00, 0x00, 0x08, 0x00, 0x0c, 0x00,
  0x04, 0x00, 0x08, 0x00, 0x08, 0x00, 0x00, 0x00, 0x08, 0x00, 0x00, 0x00,
  0x0b, 0x00, 0x00, 0x00, 0x13, 0x00, 0x00, 0x00, 0x6d, 0x69, 0x6e, 0x5f,
  0x72, 0x75, 0x6e, 0x74, 0x69, 0x6d, 0x65, 0x5f, 0x76, 0x65, 0x72, 0x73,
  0x69, 0x6f, 0x6e, 0x00, 0x0c, 0x00, 0x00, 0x00, 0xc8, 0x03, 0x00, 0x00,
  0xb4, 0x03, 0x00, 0x00, 0x78, 0x03, 0x00, 0x00, 0x14, 0x03, 0x00, 0x00,
  0x00, 0x03, 0x00, 0x00, 0xcc, 0x02, 0x00, 0x00, 0xb8, 0x00, 0x00, 0x00,
  0x64, 0x00, 0x00, 0x00, 0x58, 0x00, 0x00, 0x00, 0x44, 0x00, 0x00, 0x00,
  0x30, 0x00, 0x00, 0x00, 0x04, 0x00, 0x00, 0x00, 0xb6, 0xfc, 0xff, 0xff,
  0x04, 0x00, 0x00, 0x00, 0x10, 0x00, 0x00, 0x00, 0x31, 0x2e, 0x35, 0x2e,
  0x30, 0x00, 0x00, 0x00, 0x00, 0x00, 0x00, 0x00, 0x00, 0x00, 0x00, 0x00,
  0x00, 0x00, 0x00, 0x00, 0x00, 0x00, 0x00, 0x00, 0x00, 0x00, 0x00, 0x00,
  0xc4, 0xf7, 0xff, 0xff, 0x00, 0x00, 0x00, 0x00, 0x00, 0x00, 0x00, 0x00,
  0x00, 0x00, 0x00, 0x00, 0xd4, 0xf7, 0xff, 0xff, 0x00, 0x00, 0x00, 0x00,
  0x00, 0x00, 0x00, 0x00, 0x00, 0x00, 0x00, 0x00, 0xe4, 0xf7, 0xff, 0xff,
  0x00, 0x00, 0x00, 0x00, 0x06, 0xfd, 0xff, 0xff, 0x04, 0x00, 0x00, 0x00,
  0x40, 0x00, 0x00, 0x00, 0x2d, 0xba, 0x0a, 0xbf, 0x39, 0xaf, 0x07, 0x40,
  0xb5, 0xa9, 0xf4, 0xbd, 0x1e, 0x1b, 0x37, 0xbf, 0x00, 0x13, 0x9c, 0xbf,
  0xe5, 0x85, 0xb8, 0xbf, 0x18, 0xa3, 0x84, 0x3e, 0x2a, 0xc4, 0xe7, 0xbe,
  0xd6, 0x56, 0x24, 0x40, 0x93, 0xb7, 0x04, 0xbf, 0x65, 0xf6, 0x93, 0xbf,
  0xbd, 0xf8, 0xcf, 0x3e, 0x55, 0x7d, 0x0d, 0xbf, 0xf9, 0x4e, 0xf9, 0x3f,
  0x3f, 0x8c, 0xb6, 0x3e, 0xaf, 0x80, 0x91, 0x3e, 0x00, 0x00, 0x00, 0x00,
  0x56, 0xfd, 0xff, 0xff, 0x04, 0x00, 0x00, 0x00, 0x00, 0x02, 0x00, 0x00,
  0x00, 0xbf, 0xdd, 0xbd, 0xb7, 0x70, 0x9e, 0xbe, 0x4e, 0xdf, 0x08, 0xbd,
  0x36, 0x27, 0xbb, 0x3e, 0x48, 0x8a, 0xdf, 0xbe, 0x48, 0x31, 0xf4, 0xbe,
  0xa1, 0xa9, 0x4f, 0xbe, 0x40, 0x85, 0x4a, 0x3e, 0x80, 0xe6, 0x98, 0xbd,
  0x40, 0x65, 0xeb, 0xbc, 0xe9, 0x82, 0xb3, 0x3e, 0xa9, 0x6e, 0x9e, 0xbe,
  0xc0, 0x92, 0x7a, 0x3d, 0x7c, 0x95, 0xf6, 0xbe, 0x7f, 0x9f, 0xa8, 0xbe,
  0x60, 0x63, 0xa3, 0xbe, 0x98, 0xbf, 0xf6, 0xbe, 0x4b, 0xa6, 0x43, 0xbd,
  0x22, 0x58, 0x98, 0x3e, 0xaf, 0xe8, 0xe2, 0x3e, 0x70, 0x96, 0xe2, 0x3d,
  0x00, 0x5c, 0xbc, 0x3d, 0x68, 0x57, 0xea, 0x3d, 0x40, 0x0b, 0x56, 0x3e,
  0x58, 0x15, 0x12, 0x3e, 0x78, 0x15, 0xb4, 0x3e, 0x27, 0x6b, 0x40, 0x3e,
  0xa2, 0x72, 0x5d, 0xbe, 0xf4, 0x17, 0x9f, 0xbe, 0x48, 0x22, 0x99, 0x3e,
  0x31, 0xc1, 0xae, 0x3d, 0x58, 0xe3, 0x43, 0xbe, 0x54, 0x09, 0xc5, 0xbe,
  0x28, 0xcd, 0xef, 0x3e, 0x0f, 0x02, 0x0f, 0xbf, 0xe6, 0x9b, 0x3a, 0x3e,
  0x30, 0x1b, 0x1f, 0x3e, 0x60, 0x68, 0x4a, 0x3e, 0xd7, 0xe9, 0xe0, 0xbd,
  0x80, 0xbc, 0xf5, 0x3e, 0x48, 0x47, 0x05, 0xbe, 0x80, 0xca, 0xf3, 0x3d,
  0x78, 0xf4, 0x4a, 0xbf, 0x19, 0x68, 0x47, 0x3e, 0xe4, 0x68, 0x84, 0x3e,
  0xe4, 0xe9, 0x9f, 0xbe, 0xb3, 0x2b, 0x81, 0xbe, 0xf0, 0xf6, 0x7e, 0xbe,
  0xc8, 0x50, 0xec, 0x3e, 0x1c, 0xe0, 0xa2, 0x3e, 0x8c, 0xf6, 0x8d, 0xbe,
  0x00, 0x20, 0x28, 0xb9, 0xc0, 0xcc, 0x91, 0xbe, 0x90, 0x6e, 0x97, 0x3d,
  0x40, 0x91, 0x44, 0xbe, 0x08, 0x4b, 0x51, 0x3e, 0x68, 0xcc, 0xa5, 0xbe,
  0xa0, 0x40, 0xcc, 0xbd, 0x60, 0x31, 0xba, 0x3d, 0x18, 0x8c, 0x14, 0xbe,
  0xa0, 0xdf, 0x02, 0x3d, 0x00, 0x4a, 0xad, 0xbb, 0x40, 0xac, 0xc1, 0xbe,
  0x44, 0x1e, 0xea, 0xbe, 0x78, 0x56, 0x6f, 0x3e, 0x56, 0x11, 0x0f, 0x3d,
  0x9a, 0x54, 0xe5, 0xbe, 0x9e, 0x45, 0xd5, 0x3c, 0x28, 0xb9, 0xf9, 0xbe,
  0xd0, 0x8c, 0x1d, 0xbe, 0x5a, 0xbf, 0x1f, 0x3e, 0xe0, 0x70, 0xcd, 0x3d,
  0x68, 0x36, 0x1f, 0xbe, 0xcc, 0xcc, 0xe3, 0xbe, 0x27, 0x19, 0xb0, 0x3e,
  0x20, 0x5b, 0xc7, 0xbe, 0x88, 0x17, 0x4b, 0xbe, 0xd4, 0xa0, 0xe3, 0xbe,
  0x6e, 0x8e, 0x0a, 0xbf, 0xb0, 0x0a, 0xb9, 0xbd, 0x60, 0x84, 0xea, 0x3e,
  0x70, 0xfc, 0x6d, 0xbe, 0x23, 0x6a, 0xf0, 0xbf, 0x7d, 0x7b, 0xae, 0xbe,
  0x50, 0x19, 0xa7, 0x3d, 0x48, 0x19, 0x53, 0xbe, 0xba, 0x0a, 0x5d, 0xbd,
  0x60, 0x9f, 0x31, 0x3d, 0xdc, 0xe4, 0xe7, 0x3e, 0x65, 0x8a, 0xb4, 0x3e,
  0x0c, 0x94, 0xcf, 0x3e, 0x1e, 0x0a, 0xb7, 0x3e, 0x40, 0x65, 0xe5, 0xbe,
  0x04, 0xba, 0xc9, 0x3e, 0xce, 0xcb, 0xdd, 0xbe, 0xc8, 0x59, 0x74, 0x3e,
  0x20, 0x08, 0x02, 0xbe, 0x73, 0x62, 0x97, 0xbd, 0xa2, 0x3c, 0x8b, 0x3e,
  0x7c, 0x80, 0x3e, 0xbd, 0x40, 0x25, 0xc6, 0xbe, 0x90, 0xa2, 0x9a, 0xbe,
  0xc4, 0x52, 0x2a, 0x3e, 0x20, 0x9d, 0x42, 0x3e, 0xe0, 0x7c, 0xd0, 0x3e,
  0x58, 0x09, 0x1b, 0xbe, 0xf0, 0x97, 0x65, 0x3e, 0xbf, 0xd7, 0xfe, 0xbe,
  0x44, 0xad, 0xff, 0x3e, 0x8c, 0x78, 0xfd, 0x3e, 0x49, 0x47, 0x86, 0x3e,
  0x10, 0xdb, 0xdd, 0x3e, 0x48, 0x29, 0x74, 0xbe, 0x77, 0x8c, 0xb4, 0x3d,
  0xa4, 0x22, 0xfb, 0x3e, 0x40, 0x22, 0x91, 0x3e, 0xf0, 0xc7, 0xd0, 0x3e,
  0xb0, 0xd7, 0xe8, 0xbe, 0xb7, 0x5f, 0x7b, 0xbe, 0x00, 0x8e, 0x39, 0x3b,
  0xe0, 0xff, 0xe8, 0xbd, 0x84, 0x67, 0xb2, 0xbe, 0xe8, 0x99, 0xaa, 0xbe,
  0xc9, 0xf3, 0x42, 0x3e, 0xa0, 0x75, 0xc1, 0xbe, 0x74, 0xa1, 0xc0, 0x3e,
  0xa8, 0x35, 0x48, 0xbe, 0x20, 0x18, 0xa6, 0x3e, 0x00, 0x00, 0x00, 0x00,
  0x66, 0xff, 0xff, 0xff, 0x04, 0x00, 0x00, 0x00, 0x20, 0x00, 0x00, 0x00,
  0xa5, 0xeb, 0x38, 0xbf, 0xd0, 0x39, 0x0c, 0x3b, 0xc2, 0x7c, 0x58, 0x3f,
  0x6f, 0xdb, 0x2e, 0x3e, 0x2c, 0x90, 0xa1, 0xbe, 0xe1, 0x0e, 0x35, 0xbf,
  0x37, 0x8b, 0x87, 0x3e, 0x19, 0xf3, 0xb3, 0xbe, 0x00, 0x00, 0x00, 0x00,
  0x96, 0xff, 0xff, 0xff, 0x04, 0x00, 0x00, 0x00, 0x04, 0x00, 0x00, 0x00,
  0xd1, 0x75, 0x82, 0xbe, 0xa6, 0xff, 0xff, 0xff, 0x04, 0x00, 0x00, 0x00,
  0x40, 0x00, 0x00, 0x00, 0x0f, 0xd9, 0x5d, 0x3e, 0xae, 0xb5, 0xdd, 0xbe,
  0xce, 0x89, 0x45, 0x3d, 0xfe, 0x15, 0x97, 0x3e, 0xdc, 0xb2, 0x55, 0x3f,
  0x36, 0x6d, 0x3f, 0x3f, 0x00, 0x00, 0x00, 0x00, 0x00, 0x00, 0x00, 0x00,
  0x6f, 0x40, 0x9a, 0x3f, 0x0b, 0xac, 0x75, 0xbd, 0x0a, 0x32, 0xce, 0x3e,
  0x0c, 0xf1, 0x8a, 0xbe, 0x00, 0x9a, 0xb1, 0x3d, 0x79, 0xdf, 0x21, 0xbf,
  0x31, 0xbf, 0x1f, 0xbe, 0xb1, 0xc1, 0x39, 0xbd, 0x00, 0x00, 0x00, 0x00,
  0x00, 0x00, 0x00, 0x00, 0x00, 0x00, 0x00, 0x00, 0x00, 0x00, 0x06, 0x00,
  0x08, 0x00, 0x04, 0x00, 0x06, 0x00, 0x00, 0x00, 0x04, 0x00, 0x00, 0x00,
  0x20, 0x00, 0x00, 0x00, 0x00, 0x00, 0x00, 0x00, 0xca, 0xd8, 0x5c, 0xbc,
  0x22, 0xa7, 0xa3, 0xbe, 0xe5, 0xe6, 0xf1, 0x3e, 0x00, 0x00, 0x00, 0x00,
  0x00, 0x00, 0x00, 0x00, 0xed, 0xa7, 0xb5, 0x3e, 0x00, 0x00, 0x00, 0x00,
  0x00, 0x00, 0x00, 0x00, 0x00, 0x00, 0x00, 0x00, 0x00, 0x00, 0x00, 0x00,
  0x24, 0xfb, 0xff, 0xff, 0x00, 0x00, 0x00, 0x00, 0x00, 0x00, 0x00, 0x00,
  0x00, 0x00, 0x00, 0x00, 0x34, 0xfb, 0xff, 0xff, 0x00, 0x00, 0x00, 0x00,
  0x00, 0x00, 0x00, 0x00, 0x0f, 0x00, 0x00, 0x00, 0x4d, 0x4c, 0x49, 0x52,
  0x20, 0x43, 0x6f, 0x6e, 0x76, 0x65, 0x72, 0x74, 0x65, 0x64, 0x2e, 0x00,
  0x01, 0x00, 0x00, 0x00, 0x14, 0x00, 0x00, 0x00, 0x00, 0x00, 0x0e, 0x00,
  0x18, 0x00, 0x04, 0x00, 0x08, 0x00, 0x0c, 0x00, 0x10, 0x00, 0x14, 0x00,
  0x0e, 0x00, 0x00, 0x00, 0x00, 0x01, 0x00, 0x00, 0xf4, 0x00, 0x00, 0x00,
  0xe8, 0x00, 0x00, 0x00, 0x14, 0x00, 0x00, 0x00, 0x04, 0x00, 0x00, 0x00,
  0x04, 0x00, 0x00, 0x00, 0x6d, 0x61, 0x69, 0x6e, 0x00, 0x00, 0x00, 0x00,
  0x03, 0x00, 0x00, 0x00, 0x90, 0x00, 0x00, 0x00, 0x48, 0x00, 0x00, 0x00,
  0x04, 0x00, 0x00, 0x00, 0xce, 0xff, 0xff, 0xff, 0x00, 0x00, 0x00, 0x08,
  0x18, 0x00, 0x00, 0x00, 0x0c, 0x00, 0x00, 0x00, 0x04, 0x00, 0x00, 0x00,
  0xb4, 0xfb, 0xff, 0xff, 0x01, 0x00, 0x00, 0x00, 0x09, 0x00, 0x00, 0x00,
  0x03, 0x00, 0x00, 0x00, 0x08, 0x00, 0x00, 0x00, 0x06, 0x00, 0x00, 0x00,
  0x03, 0x00, 0x00, 0x00, 0x00, 0x00, 0x0e, 0x00, 0x14, 0x00, 0x00, 0x00,
  0x08, 0x00, 0x0c, 0x00, 0x07, 0x00, 0x10, 0x00, 0x0e, 0x00, 0x00, 0x00,
  0x00, 0x00, 0x00, 0x08, 0x1c, 0x00, 0x00, 0x00, 0x10, 0x00, 0x00, 0x00,
  0x04, 0x00, 0x00, 0x00, 0xba, 0xff, 0xff, 0xff, 0x00, 0x00, 0x00, 0x01,
  0x01, 0x00, 0x00, 0x00, 0x08, 0x00, 0x00, 0x00, 0x03, 0x00, 0x00, 0x00,
  0x07, 0x00, 0x00, 0x00, 0x05, 0x00, 0x00, 0x00, 0x02, 0x00, 0x00, 0x00,
  0x00, 0x00, 0x0e, 0x00, 0x16, 0x00, 0x00, 0x00, 0x08, 0x00, 0x0c, 0x00,
  0x07, 0x00, 0x10, 0x00, 0x0e, 0x00, 0x00, 0x00, 0x00, 0x00, 0x00, 0x08,
  0x24, 0x00, 0x00, 0x00, 0x18, 0x00, 0x00, 0x00, 0x0c, 0x00, 0x00, 0x00,
  0x00, 0x00, 0x06, 0x00, 0x08, 0x00, 0x07, 0x00, 0x06, 0x00, 0x00, 0x00,
  0x00, 0x00, 0x00, 0x01, 0x01, 0x00, 0x00, 0x00, 0x07, 0x00, 0x00, 0x00,
  0x03, 0x00, 0x00, 0x00, 0x00, 0x00, 0x00, 0x00, 0x04, 0x00, 0x00, 0x00,
  0x01, 0x00, 0x00, 0x00, 0x01, 0x00, 0x00, 0x00, 0x09, 0x00, 0x00, 0x00,
  0x01, 0x00, 0x00, 0x00, 0x00, 0x00, 0x00, 0x00, 0x0a, 0x00, 0x00, 0x00,
  0x68, 0x03, 0x00, 0x00, 0xf8, 0x02, 0x00, 0x00, 0x8c, 0x02, 0x00, 0x00,
  0x30, 0x02, 0x00, 0x00, 0xec, 0x01, 0x00, 0x00, 0xa4, 0x01, 0x00, 0x00,
  0x5c, 0x01, 0x00, 0x00, 0xd8, 0x00, 0x00, 0x00, 0x4c, 0x00, 0x00, 0x00,
  0x04, 0x00, 0x00, 0x00, 0xd4, 0xfc, 0xff, 0xff, 0x34, 0x00, 0x00, 0x00,
  0x0a, 0x00, 0x00, 0x00, 0x1c, 0x00, 0x00, 0x00, 0x14, 0x00, 0x00, 0x00,
  0x04, 0x00, 0x00, 0x00, 0x02, 0x00, 0x00, 0x00, 0xff, 0xff, 0xff, 0xff,
  0x01, 0x00, 0x00, 0x00, 0xc0, 0xfc, 0xff, 0xff, 0x08, 0x00, 0x00, 0x00,
  0x49, 0x64, 0x65, 0x6e, 0x74, 0x69, 0x74, 0x79, 0x00, 0x00, 0x00, 0x00,
  0x02, 0x00, 0x00, 0x00, 0x01, 0x00, 0x00, 0x00, 0x01, 0x00, 0x00, 0x00,
  0x18, 0xfd, 0xff, 0xff, 0x78, 0x00, 0x00, 0x00, 0x09, 0x00, 0x00, 0x00,
  0x1c, 0x00, 0x00, 0x00, 0x14, 0x00, 0x00, 0x00, 0x04, 0x00, 0x00, 0x00,
  0x02, 0x00, 0x00, 0x00, 0xff, 0xff, 0xff, 0xff, 0x10, 0x00, 0x00, 0x00,
  0x04, 0xfd, 0xff, 0xff, 0x4c, 0x00, 0x00, 0x00, 0x73, 0x65, 0x71, 0x75,
  0x65, 0x6e, 0x74, 0x69, 0x61, 0x6c, 0x2f, 0x64, 0x65, 0x6e, 0x73, 0x65,
  0x5f, 0x31, 0x2f, 0x4d, 0x61, 0x74, 0x4d, 0x75, 0x6c, 0x3b, 0x73, 0x65,
  0x71, 0x75, 0x65, 0x6e, 0x74, 0x69, 0x61, 0x6c, 0x2f, 0x64, 0x65, 0x6e,
  0x73, 0x65, 0x5f, 0x31, 0x2f, 0x52, 0x65, 0x6c, 0x75, 0x3b, 0x73, 0x65,
  0x71, 0x75, 0x65, 0x6e, 0x74, 0x69, 0x61, 0x6c, 0x2f, 0x64, 0x65, 0x6e,
  0x73, 0x65, 0x5f, 0x31, 0x2f, 0x42, 0x69, 0x61, 0x73, 0x41, 0x64, 0x64,
  0x00, 0x00, 0x00, 0x00, 0x02, 0x00, 0x00, 0x00, 0x01, 0x00, 0x00, 0x00,
  0x10, 0x00, 0x00, 0x00, 0xa0, 0xfd, 0xff, 0xff, 0x70, 0x00, 0x00, 0x00,
  0x08, 0x00, 0x00, 0x00, 0x1c, 0x00, 0x00, 0x00, 0x14, 0x00, 0x00, 0x00,
  0x04, 0x00, 0x00, 0x00, 0x02, 0x00, 0x00, 0x00, 0xff, 0xff, 0xff, 0xff,
  0x08, 0x00, 0x00, 0x00, 0x8c, 0xfd, 0xff, 0xff, 0x46, 0x00, 0x00, 0x00,
  0x73, 0x65, 0x71, 0x75, 0x65, 0x6e, 0x74, 0x69, 0x61, 0x6c, 0x2f, 0x64,
  0x65, 0x6e, 0x73, 0x65, 0x2f, 0x4d, 0x61, 0x74, 0x4d, 0x75, 0x6c, 0x3b,
  0x73, 0x65, 0x71, 0x75, 0x65, 0x6e, 0x74, 0x69, 0x61, 0x6c, 0x2f, 0x64,
  0x65, 0x6e, 0x73, 0x65, 0x2f, 0x52, 0x65, 0x6c, 0x75, 0x3b, 0x73, 0x65,
  0x71, 0x75, 0x65, 0x6e, 0x74, 0x69, 0x61, 0x6c, 0x2f, 0x64, 0x65, 0x6e,
  0x73, 0x65, 0x2f, 0x42, 0x69, 0x61, 0x73, 0x41, 0x64, 0x64, 0x00, 0x00,
  0x02, 0x00, 0x00, 0x00, 0x01, 0x00, 0x00, 0x00, 0x08, 0x00, 0x00, 0x00,
  0x86, 0xfe, 0xff, 0xff, 0x34, 0x00, 0x00, 0x00, 0x07, 0x00, 0x00, 0x00,
  0x0c, 0x00, 0x00, 0x00, 0x04, 0x00, 0x00, 0x00, 0xfc, 0xfd, 0xff, 0xff,
  0x19, 0x00, 0x00, 0x00, 0x73, 0x65, 0x71, 0x75, 0x65, 0x6e, 0x74, 0x69,
  0x61, 0x6c, 0x2f, 0x64, 0x65, 0x6e, 0x73, 0x65, 0x5f, 0x32, 0x2f, 0x4d,
  0x61, 0x74, 0x4d, 0x75, 0x6c, 0x00, 0x00, 0x00, 0x02, 0x00, 0x00, 0x00,
  0x01, 0x00, 0x00, 0x00, 0x10, 0x00, 0x00, 0x00, 0xca, 0xfe, 0xff, 0xff,
  0x34, 0x00, 0x00, 0x00, 0x06, 0x00, 0x00, 0x00, 0x0c, 0x00, 0x00, 0x00,
  0x04, 0x00, 0x00, 0x00, 0x40, 0xfe, 0xff, 0xff, 0x19, 0x00, 0x00, 0x00,
  0x73, 0x65, 0x71, 0x75, 0x65, 0x6e, 0x74, 0x69, 0x61, 0x6c, 0x2f, 0x64,
  0x65, 0x6e, 0x73, 0x65, 0x5f, 0x31, 0x2f, 0x4d, 0x61, 0x74, 0x4d, 0x75,
  0x6c, 0x00, 0x00, 0x00, 0x02, 0x00, 0x00, 0x00, 0x10, 0x00, 0x00, 0x00,
  0x08, 0x00, 0x00, 0x00, 0x0e, 0xff, 0xff, 0xff, 0x30, 0x00, 0x00, 0x00,
  0x05, 0x00, 0x00, 0x00, 0x0c, 0x00, 0x00, 0x00, 0x04, 0x00, 0x00, 0x00,
  0x84, 0xfe, 0xff, 0xff, 0x17, 0x00, 0x00, 0x00, 0x73, 0x65, 0x71, 0x75,
  0x65, 0x6e, 0x74, 0x69, 0x61, 0x6c, 0x2f, 0x64, 0x65, 0x6e, 0x73, 0x65,
  0x2f, 0x4d, 0x61, 0x74, 0x4d, 0x75, 0x6c, 0x00, 0x02, 0x00, 0x00, 0x00,
  0x08, 0x00, 0x00, 0x00, 0x01, 0x00, 0x00, 0x00, 0x4e, 0xff, 0xff, 0xff,
  0x4c, 0x00, 0x00, 0x00, 0x04, 0x00, 0x00, 0x00, 0x0c, 0x00, 0x00, 0x00,
  0x04, 0x00, 0x00, 0x00, 0xc4, 0xfe, 0xff, 0xff, 0x32, 0x00, 0x00, 0x00,
  0x73, 0x65, 0x71, 0x75, 0x65, 0x6e, 0x74, 0x69, 0x61, 0x6c, 0x2f, 0x64,
  0x65, 0x6e, 0x73, 0x65, 0x5f, 0x32, 0x2f, 0x42, 0x69, 0x61, 0x73, 0x41,
  0x64, 0x64, 0x2f, 0x52, 0x65, 0x61, 0x64, 0x56, 0x61, 0x72, 0x69, 0x61,
  0x62, 0x6c, 0x65, 0x4f, 0x70, 0x2f, 0x72, 0x65, 0x73, 0x6f, 0x75, 0x72,
  0x63, 0x65, 0x00, 0x00, 0x01, 0x00, 0x00, 0x00, 0x01, 0x00, 0x00, 0x00,
  0xa6, 0xff, 0xff, 0xff, 0x4c, 0x00, 0x00, 0x00, 0x03, 0x00, 0x00, 0x00,
  0x0c, 0x00, 0x00, 0x00, 0x04, 0x00, 0x00, 0x00, 0x1c, 0xff, 0xff, 0xff,
  0x32, 0x00, 0x00, 0x00, 0x73, 0x65, 0x71, 0x75, 0x65, 0x6e, 0x74, 0x69,
  0x61, 0x6c, 0x2f, 0x64, 0x65, 0x6e, 0x73, 0x65, 0x5f, 0x31, 0x2f, 0x42,
  0x69, 0x61, 0x73, 0x41, 0x64, 0x64, 0x2f, 0x52, 0x65, 0x61, 0x64, 0x56,
  0x61, 0x72, 0x69, 0x61, 0x62, 0x6c, 0x65, 0x4f, 0x70, 0x2f, 0x72, 0x65,
  0x73, 0x6f, 0x75, 0x72, 0x63, 0x65, 0x00, 0x00, 0x01, 0x00, 0x00, 0x00,
  0x10, 0x00, 0x00, 0x00, 0x00, 0x00, 0x0e, 0x00, 0x14, 0x00, 0x04, 0x00,
  0x00, 0x00, 0x08, 0x00, 0x0c, 0x00, 0x10, 0x00, 0x0e, 0x00, 0x00, 0x00,
  0x4c, 0x00, 0x00, 0x00, 0x02, 0x00, 0x00, 0x00, 0x0c, 0x00, 0x00, 0x00,
  0x04, 0x00, 0x00, 0x00, 0x84, 0xff, 0xff, 0xff, 0x30, 0x00, 0x00, 0x00,
  0x73, 0x65, 0x71, 0x75, 0x65, 0x6e, 0x74, 0x69, 0x61, 0x6c, 0x2f, 0x64,
  0x65, 0x6e, 0x73, 0x65, 0x2f, 0x42, 0x69, 0x61, 0x73, 0x41, 0x64, 0x64,
  0x2f, 0x52, 0x65, 0x61, 0x64, 0x56, 0x61, 0x72, 0x69, 0x61, 0x62, 0x6c,
  0x65, 0x4f, 0x70, 0x2f, 0x72, 0x65, 0x73, 0x6f, 0x75, 0x72, 0x63, 0x65,
  0x00, 0x00, 0x00, 0x00, 0x01, 0x00, 0x00, 0x00, 0x08, 0x00, 0x00, 0x00,
  0x14, 0x00, 0x18, 0x00, 0x04, 0x00, 0x00, 0x00, 0x08, 0x00, 0x0c, 0x00,
  0x10, 0x00, 0x00, 0x00, 0x00, 0x00, 0x14, 0x00, 0x14, 0x00, 0x00, 0x00,
  0x38, 0x00, 0x00, 0x00, 0x01, 0x00, 0x00, 0x00, 0x20, 0x00, 0x00, 0x00,
  0x18, 0x00, 0x00, 0x00, 0x04, 0x00, 0x00, 0x00, 0x02, 0x00, 0x00, 0x00,
  0xff, 0xff, 0xff, 0xff, 0x01, 0x00, 0x00, 0x00, 0x04, 0x00, 0x04, 0x00,
  0x04, 0x00, 0x00, 0x00, 0x0b, 0x00, 0x00, 0x00, 0x64, 0x65, 0x6e, 0x73,
  0x65, 0x5f, 0x69, 0x6e, 0x70, 0x75, 0x74, 0x00, 0x02, 0x00, 0x00, 0x00,
  0x01, 0x00, 0x00, 0x00, 0x01, 0x00, 0x00, 0x00, 0x01, 0x00, 0x00, 0x00,
  0x10, 0x00, 0x00, 0x00, 0x0c, 0x00, 0x10, 0x00, 0x07, 0x00, 0x00, 0x00,
  0x08, 0x00, 0x0c, 0x00, 0x0c, 0x00, 0x00, 0x00, 0x00, 0x00, 0x00, 0x09,
  0x09, 0x00, 0x00, 0x00, 0x09, 0x00, 0x00, 0x00
};
unsigned int sine_model_quantized_tflite_len = 2384;
