
#ifdef __has_attribute
#define HAVE_ATTRIBUTE(x) __has_attribute(x)
#else
#define HAVE_ATTRIBUTE(x) 0
#endif
#if HAVE_ATTRIBUTE(aligned) || (defined(__GNUC__) && !defined(__clang__))
#define DATA_ALIGN_ATTRIBUTE __attribute__((aligned(4)))
#else
#define DATA_ALIGN_ATTRIBUTE
#endif

const unsigned char model_data[] DATA_ALIGN_ATTRIBUTE = {
	0x20, 0x00, 0x00, 0x00, 0x54, 0x46, 0x4c, 0x33, 0x00, 0x00, 0x00, 0x00, 
	0x00, 0x00, 0x12, 0x00, 0x1c, 0x00, 0x04, 0x00, 0x08, 0x00, 0x0c, 0x00, 
	0x10, 0x00, 0x14, 0x00, 0x00, 0x00, 0x18, 0x00, 0x12, 0x00, 0x00, 0x00, 
	0x03, 0x00, 0x00, 0x00, 0x04, 0x09, 0x00, 0x00, 0x30, 0x04, 0x00, 0x00, 
	0x18, 0x04, 0x00, 0x00, 0x3c, 0x00, 0x00, 0x00, 0x04, 0x00, 0x00, 0x00, 
	0x01, 0x00, 0x00, 0x00, 0x0c, 0x00, 0x00, 0x00, 0x08, 0x00, 0x0c, 0x00, 
	0x04, 0x00, 0x08, 0x00, 0x08, 0x00, 0x00, 0x00, 0x08, 0x00, 0x00, 0x00, 
	0x0b, 0x00, 0x00, 0x00, 0x13, 0x00, 0x00, 0x00, 0x6d, 0x69, 0x6e, 0x5f, 
	0x72, 0x75, 0x6e, 0x74, 0x69, 0x6d, 0x65, 0x5f, 0x76, 0x65, 0x72, 0x73, 
	0x69, 0x6f, 0x6e, 0x00, 0x0c, 0x00, 0x00, 0x00, 0xc8, 0x03, 0x00, 0x00, 
	0xb4, 0x03, 0x00, 0x00, 0x78, 0x03, 0x00, 0x00, 0x14, 0x03, 0x00, 0x00, 
	0x00, 0x03, 0x00, 0x00, 0xcc, 0x02, 0x00, 0x00, 0xb8, 0x00, 0x00, 0x00, 
	0x64, 0x00, 0x00, 0x00, 0x58, 0x00, 0x00, 0x00, 0x44, 0x00, 0x00, 0x00, 
	0x30, 0x00, 0x00, 0x00, 0x04, 0x00, 0x00, 0x00, 0xb6, 0xfc, 0xff, 0xff, 
	0x04, 0x00, 0x00, 0x00, 0x10, 0x00, 0x00, 0x00, 0x31, 0x2e, 0x35, 0x2e, 
	0x30, 0x00, 0x00, 0x00, 0x00, 0x00, 0x00, 0x00, 0x00, 0x00, 0x00, 0x00, 
	0x00, 0x00, 0x00, 0x00, 0x00, 0x00, 0x00, 0x00, 0x00, 0x00, 0x00, 0x00, 
	0xc4, 0xf7, 0xff, 0xff, 0x00, 0x00, 0x00, 0x00, 0x00, 0x00, 0x00, 0x00, 
	0x00, 0x00, 0x00, 0x00, 0xd4, 0xf7, 0xff, 0xff, 0x00, 0x00, 0x00, 0x00, 
	0x00, 0x00, 0x00, 0x00, 0x00, 0x00, 0x00, 0x00, 0xe4, 0xf7, 0xff, 0xff, 
	0x00, 0x00, 0x00, 0x00, 0x06, 0xfd, 0xff, 0xff, 0x04, 0x00, 0x00, 0x00, 
	0x40, 0x00, 0x00, 0x00, 0x25, 0x49, 0x02, 0xbf, 0xe6, 0xa7, 0x66, 0x3e, 
	0x58, 0x0e, 0x95, 0xbe, 0xc4, 0xfe, 0xab, 0x3f, 0x63, 0x0a, 0xab, 0x3f, 
	0x82, 0xa0, 0x09, 0xbf, 0xd5, 0x7f, 0x07, 0x3f, 0xe7, 0x8f, 0x21, 0x3f, 
	0xcd, 0x60, 0x0a, 0xbe, 0x98, 0xc6, 0xdc, 0x3f, 0x28, 0xcc, 0xb2, 0xbf, 
	0x6f, 0xff, 0xcc, 0xbe, 0x6e, 0x77, 0x3e, 0xbe, 0x74, 0x35, 0x77, 0x3d, 
	0x7c, 0xee, 0xb8, 0x3f, 0x9c, 0x69, 0x1a, 0x3e, 0x00, 0x00, 0x00, 0x00, 
	0x56, 0xfd, 0xff, 0xff, 0x04, 0x00, 0x00, 0x00, 0x00, 0x02, 0x00, 0x00, 
	0x7e, 0xdc, 0xe2, 0x3e, 0x96, 0xd6, 0x87, 0x3d, 0x54, 0xef, 0xa9, 0xbe, 
	0x24, 0x65, 0xcb, 0x3e, 0xfc, 0xb0, 0xd0, 0xbe, 0xcf, 0x9f, 0x04, 0xbe, 
	0x51, 0xfa, 0x5a, 0x3e, 0x48, 0x9e, 0x42, 0xbe, 0x25, 0xcb, 0xa9, 0xbe, 
	0x59, 0x2a, 0x15, 0x3e, 0x40, 0x51, 0xb2, 0x3e, 0xb0, 0xbc, 0xf6, 0x3d, 
	0x28, 0x30, 0x1a, 0xbe, 0x11, 0xf8, 0x91, 0x3e, 0x4f, 0xd1, 0x97, 0x3e, 
	0xc0, 0xee, 0xd7, 0x3c, 0x53, 0xaf, 0x23, 0x3f, 0x47, 0x66, 0xd8, 0x3d, 
	0x28, 0x47, 0x3a, 0x3e, 0xa0, 0x96, 0x27, 0x3d, 0xf0, 0x31, 0x55, 0x3e, 
	0xd9, 0xc7, 0x9f, 0x3e, 0x58, 0x4b, 0xf3, 0x3d, 0x34, 0x88, 0x83, 0x3e, 
	0x7e, 0xaa, 0xd1, 0x3e, 0x30, 0xf1, 0xea, 0xbe, 0x08, 0x22, 0xd9, 0xbe, 
	0x40, 0x5a, 0x14, 0x3e, 0xcc, 0x3b, 0xb2, 0x3e, 0xc0, 0x8e, 0x91, 0x3d, 
	0x4f, 0x74, 0x67, 0xbd, 0xf8, 0xfb, 0xf6, 0xbe, 0x1b, 0xd1, 0x51, 0x3f, 
	0xee, 0x7a, 0x14, 0xbf, 0xe0, 0xa8, 0x8c, 0xbe, 0xc0, 0x8b, 0xdc, 0x3c, 
	0x00, 0x36, 0xc1, 0xbc, 0x5d, 0xfc, 0x4b, 0x3d, 0xcc, 0x99, 0xfd, 0x3c, 
	0x70, 0x88, 0x9c, 0x3d, 0x84, 0xb0, 0x13, 0x3f, 0x70, 0x94, 0x8a, 0xbc, 
	0x18, 0x0d, 0xde, 0x3e, 0x20, 0x04, 0x30, 0xbd, 0xa8, 0xe9, 0xad, 0xbe, 
	0xea, 0x5c, 0xd7, 0x3e, 0x75, 0x0d, 0x05, 0xbf, 0xa8, 0x60, 0x94, 0xbe, 
	0x97, 0xe3, 0x30, 0x3d, 0x0b, 0xa4, 0x61, 0x3e, 0x84, 0xbf, 0x9d, 0x3e, 
	0xa0, 0x4b, 0x8a, 0x3d, 0x50, 0x9c, 0x0d, 0x3e, 0x4e, 0x45, 0xc9, 0x3e, 
	0x99, 0x50, 0x33, 0x3d, 0x30, 0x0b, 0xe8, 0x3d, 0x06, 0x8a, 0x31, 0xbb, 
	0xa3, 0x7c, 0xd6, 0x3d, 0x4c, 0xb4, 0xa9, 0xbe, 0x40, 0x0f, 0x9f, 0x3e, 
	0xbc, 0xac, 0xdb, 0x3e, 0x2f, 0x30, 0x19, 0x3e, 0xa0, 0x25, 0xe2, 0x3d, 
	0x80, 0xd0, 0xc1, 0xbc, 0x14, 0x59, 0x2f, 0x3f, 0xaa, 0xec, 0x35, 0xbe, 
	0x58, 0xad, 0x05, 0x3e, 0xec, 0xe2, 0xa6, 0xbe, 0x18, 0xa9, 0x1d, 0xbe, 
	0xad, 0x59, 0x9b, 0x3e, 0x0e, 0xe3, 0xbf, 0x3e, 0x78, 0x84, 0xdd, 0x3e, 
	0x19, 0xe1, 0x1d, 0xbf, 0x5e, 0x0f, 0x94, 0x3e, 0xb8, 0x57, 0x6e, 0x3e, 
	0xd8, 0x9d, 0x62, 0x3e, 0x68, 0x96, 0xf3, 0xbe, 0x48, 0xfb, 0x6e, 0x3d, 
	0x41, 0xdc, 0x4e, 0x3d, 0x94, 0x06, 0xcb, 0xbe, 0x36, 0xe3, 0x48, 0x3f, 
	0x9a, 0xe5, 0xcb, 0xbe, 0xc0, 0xcd, 0x90, 0xbc, 0x08, 0xdd, 0xf6, 0x3e, 
	0xc8, 0x97, 0xc5, 0x3e, 0x43, 0xa9, 0x82, 0xbe, 0x0f, 0x12, 0x48, 0xbf, 
	0x3c, 0x55, 0xf3, 0x3e, 0x12, 0xe5, 0x3e, 0x3f, 0xc0, 0xf3, 0x78, 0x3e, 
	0x00, 0x0e, 0x58, 0xbd, 0xe4, 0xe0, 0xfc, 0xbe, 0x34, 0xb0, 0xe8, 0xbe, 
	0xf8, 0x16, 0xeb, 0x3d, 0xf4, 0x62, 0xb1, 0xbe, 0xa0, 0x5d, 0x5d, 0xbe, 
	0xb1, 0xb1, 0xfd, 0x3d, 0xb1, 0x15, 0xaa, 0x3e, 0xd0, 0x7a, 0xbd, 0x3d, 
	0x00, 0x2b, 0x82, 0xbb, 0x00, 0x98, 0xc2, 0x3e, 0xec, 0x83, 0x3f, 0x3a, 
	0x00, 0xb1, 0x1e, 0x3e, 0xd0, 0x5d, 0xa2, 0x3d, 0xa3, 0x6e, 0xc2, 0xbe, 
	0x8e, 0x74, 0xa5, 0xbe, 0xf8, 0x06, 0x18, 0x3e, 0x50, 0xef, 0xbd, 0x3e, 
	0x20, 0xa7, 0xca, 0xbd, 0x31, 0x08, 0x67, 0xbd, 0x8f, 0x44, 0xbf, 0x3e, 
	0x80, 0x75, 0x6f, 0xbe, 0x2c, 0xf1, 0x22, 0x3f, 0x97, 0x80, 0x06, 0xbf, 
	0x24, 0x7f, 0x84, 0xbe, 0x40, 0x31, 0x5e, 0x3d, 0x9c, 0xc2, 0xdd, 0xbe, 
	0xe5, 0x6d, 0xb2, 0x3d, 0x4b, 0xc3, 0xb5, 0xbd, 0x5c, 0x26, 0x91, 0x3e, 
	0xc7, 0x70, 0xaa, 0xbd, 0xf6, 0x50, 0x93, 0x3d, 0xf0, 0x75, 0xdf, 0x3d, 
	0x58, 0xe8, 0x97, 0x3e, 0x00, 0xac, 0xcd, 0x3e, 0xe2, 0x8a, 0xe8, 0x3e, 
	0x94, 0x0e, 0xcb, 0x3d, 0x40, 0x5e, 0xd8, 0xbe, 0x00, 0x00, 0x00, 0x00, 
	0x66, 0xff, 0xff, 0xff, 0x04, 0x00, 0x00, 0x00, 0x20, 0x00, 0x00, 0x00, 
	0xc0, 0xdd, 0x0b, 0xbd, 0x8f, 0x20, 0x0e, 0x3f, 0x58, 0xcb, 0x59, 0xbe, 
	0x08, 0xce, 0xe1, 0xbd, 0x5e, 0x6b, 0xae, 0xbe, 0x95, 0x1b, 0x17, 0x3f, 
	0xa8, 0x5c, 0x09, 0x3f, 0x73, 0x0a, 0xe9, 0xbe, 0x00, 0x00, 0x00, 0x00, 
	0x96, 0xff, 0xff, 0xff, 0x04, 0x00, 0x00, 0x00, 0x04, 0x00, 0x00, 0x00, 
	0xbb, 0x48, 0xf0, 0xbe, 0xa6, 0xff, 0xff, 0xff, 0x04, 0x00, 0x00, 0x00, 
	0x40, 0x00, 0x00, 0x00, 0xd2, 0xb6, 0x9a, 0x3e, 0x92, 0xe2, 0x09, 0xbf, 
	0x43, 0xaa, 0x45, 0x3e, 0xb1, 0xee, 0xec, 0x3e, 0x0c, 0x9d, 0xe7, 0x3e, 
	0xea, 0x8b, 0x4a, 0x3e, 0x97, 0x87, 0xb3, 0xbe, 0xd6, 0x6d, 0xbe, 0xbe, 
	0x3c, 0x49, 0x85, 0x3e, 0x7f, 0x6b, 0x14, 0xbf, 0xa2, 0xa3, 0x4f, 0x3f, 
	0xd6, 0x91, 0x6f, 0x3e, 0x7c, 0xe1, 0x28, 0x3e, 0x1e, 0x35, 0xcf, 0xbb, 
	0x6e, 0x06, 0xeb, 0x3e, 0x56, 0xa3, 0xaa, 0xbe, 0x00, 0x00, 0x00, 0x00, 
	0x00, 0x00, 0x00, 0x00, 0x00, 0x00, 0x00, 0x00, 0x00, 0x00, 0x06, 0x00, 
	0x08, 0x00, 0x04, 0x00, 0x06, 0x00, 0x00, 0x00, 0x04, 0x00, 0x00, 0x00, 
	0x20, 0x00, 0x00, 0x00, 0x73, 0x05, 0x4f, 0x3f, 0x96, 0xf5, 0x22, 0xbf, 
	0x00, 0x00, 0x00, 0x00, 0x00, 0x00, 0x00, 0x00, 0x00, 0x00, 0x00, 0x00, 
	0x20, 0x55, 0xd7, 0x3c, 0xb7, 0xc3, 0x9f, 0xbb, 0x00, 0x00, 0x00, 0x00, 
	0x00, 0x00, 0x00, 0x00, 0x00, 0x00, 0x00, 0x00, 0x00, 0x00, 0x00, 0x00, 
	0x24, 0xfb, 0xff, 0xff, 0x00, 0x00, 0x00, 0x00, 0x00, 0x00, 0x00, 0x00, 
	0x00, 0x00, 0x00, 0x00, 0x34, 0xfb, 0xff, 0xff, 0x00, 0x00, 0x00, 0x00, 
	0x00, 0x00, 0x00, 0x00, 0x0f, 0x00, 0x00, 0x00, 0x4d, 0x4c, 0x49, 0x52, 
	0x20, 0x43, 0x6f, 0x6e, 0x76, 0x65, 0x72, 0x74, 0x65, 0x64, 0x2e, 0x00, 
	0x01, 0x00, 0x00, 0x00, 0x14, 0x00, 0x00, 0x00, 0x00, 0x00, 0x0e, 0x00, 
	0x18, 0x00, 0x04, 0x00, 0x08, 0x00, 0x0c, 0x00, 0x10, 0x00, 0x14, 0x00, 
	0x0e, 0x00, 0x00, 0x00, 0x00, 0x01, 0x00, 0x00, 0xf4, 0x00, 0x00, 0x00, 
	0xe8, 0x00, 0x00, 0x00, 0x14, 0x00, 0x00, 0x00, 0x04, 0x00, 0x00, 0x00, 
	0x04, 0x00, 0x00, 0x00, 0x6d, 0x61, 0x69, 0x6e, 0x00, 0x00, 0x00, 0x00, 
	0x03, 0x00, 0x00, 0x00, 0x90, 0x00, 0x00, 0x00, 0x48, 0x00, 0x00, 0x00, 
	0x04, 0x00, 0x00, 0x00, 0xce, 0xff, 0xff, 0xff, 0x00, 0x00, 0x00, 0x08, 
	0x18, 0x00, 0x00, 0x00, 0x0c, 0x00, 0x00, 0x00, 0x04, 0x00, 0x00, 0x00, 
	0xb4, 0xfb, 0xff, 0xff, 0x01, 0x00, 0x00, 0x00, 0x09, 0x00, 0x00, 0x00, 
	0x03, 0x00, 0x00, 0x00, 0x08, 0x00, 0x00, 0x00, 0x06, 0x00, 0x00, 0x00, 
	0x03, 0x00, 0x00, 0x00, 0x00, 0x00, 0x0e, 0x00, 0x14, 0x00, 0x00, 0x00, 
	0x08, 0x00, 0x0c, 0x00, 0x07, 0x00, 0x10, 0x00, 0x0e, 0x00, 0x00, 0x00, 
	0x00, 0x00, 0x00, 0x08, 0x1c, 0x00, 0x00, 0x00, 0x10, 0x00, 0x00, 0x00, 
	0x04, 0x00, 0x00, 0x00, 0xba, 0xff, 0xff, 0xff, 0x00, 0x00, 0x00, 0x01, 
	0x01, 0x00, 0x00, 0x00, 0x08, 0x00, 0x00, 0x00, 0x03, 0x00, 0x00, 0x00, 
	0x07, 0x00, 0x00, 0x00, 0x05, 0x00, 0x00, 0x00, 0x02, 0x00, 0x00, 0x00, 
	0x00, 0x00, 0x0e, 0x00, 0x16, 0x00, 0x00, 0x00, 0x08, 0x00, 0x0c, 0x00, 
	0x07, 0x00, 0x10, 0x00, 0x0e, 0x00, 0x00, 0x00, 0x00, 0x00, 0x00, 0x08, 
	0x24, 0x00, 0x00, 0x00, 0x18, 0x00, 0x00, 0x00, 0x0c, 0x00, 0x00, 0x00, 
	0x00, 0x00, 0x06, 0x00, 0x08, 0x00, 0x07, 0x00, 0x06, 0x00, 0x00, 0x00, 
	0x00, 0x00, 0x00, 0x01, 0x01, 0x00, 0x00, 0x00, 0x07, 0x00, 0x00, 0x00, 
	0x03, 0x00, 0x00, 0x00, 0x00, 0x00, 0x00, 0x00, 0x04, 0x00, 0x00, 0x00, 
	0x01, 0x00, 0x00, 0x00, 0x01, 0x00, 0x00, 0x00, 0x09, 0x00, 0x00, 0x00, 
	0x01, 0x00, 0x00, 0x00, 0x00, 0x00, 0x00, 0x00, 0x0a, 0x00, 0x00, 0x00, 
	0x68, 0x03, 0x00, 0x00, 0xf8, 0x02, 0x00, 0x00, 0x8c, 0x02, 0x00, 0x00, 
	0x30, 0x02, 0x00, 0x00, 0xec, 0x01, 0x00, 0x00, 0xa4, 0x01, 0x00, 0x00, 
	0x5c, 0x01, 0x00, 0x00, 0xd8, 0x00, 0x00, 0x00, 0x4c, 0x00, 0x00, 0x00, 
	0x04, 0x00, 0x00, 0x00, 0xd4, 0xfc, 0xff, 0xff, 0x34, 0x00, 0x00, 0x00, 
	0x0a, 0x00, 0x00, 0x00, 0x1c, 0x00, 0x00, 0x00, 0x14, 0x00, 0x00, 0x00, 
	0x04, 0x00, 0x00, 0x00, 0x02, 0x00, 0x00, 0x00, 0xff, 0xff, 0xff, 0xff, 
	0x01, 0x00, 0x00, 0x00, 0xc0, 0xfc, 0xff, 0xff, 0x08, 0x00, 0x00, 0x00, 
	0x49, 0x64, 0x65, 0x6e, 0x74, 0x69, 0x74, 0x79, 0x00, 0x00, 0x00, 0x00, 
	0x02, 0x00, 0x00, 0x00, 0x01, 0x00, 0x00, 0x00, 0x01, 0x00, 0x00, 0x00, 
	0x18, 0xfd, 0xff, 0xff, 0x78, 0x00, 0x00, 0x00, 0x09, 0x00, 0x00, 0x00, 
	0x1c, 0x00, 0x00, 0x00, 0x14, 0x00, 0x00, 0x00, 0x04, 0x00, 0x00, 0x00, 
	0x02, 0x00, 0x00, 0x00, 0xff, 0xff, 0xff, 0xff, 0x10, 0x00, 0x00, 0x00, 
	0x04, 0xfd, 0xff, 0xff, 0x4c, 0x00, 0x00, 0x00, 0x73, 0x65, 0x71, 0x75, 
	0x65, 0x6e, 0x74, 0x69, 0x61, 0x6c, 0x2f, 0x64, 0x65, 0x6e, 0x73, 0x65, 
	0x5f, 0x31, 0x2f, 0x4d, 0x61, 0x74, 0x4d, 0x75, 0x6c, 0x3b, 0x73, 0x65, 
	0x71, 0x75, 0x65, 0x6e, 0x74, 0x69, 0x61, 0x6c, 0x2f, 0x64, 0x65, 0x6e, 
	0x73, 0x65, 0x5f, 0x31, 0x2f, 0x52, 0x65, 0x6c, 0x75, 0x3b, 0x73, 0x65, 
	0x71, 0x75, 0x65, 0x6e, 0x74, 0x69, 0x61, 0x6c, 0x2f, 0x64, 0x65, 0x6e, 
	0x73, 0x65, 0x5f, 0x31, 0x2f, 0x42, 0x69, 0x61, 0x73, 0x41, 0x64, 0x64, 
	0x00, 0x00, 0x00, 0x00, 0x02, 0x00, 0x00, 0x00, 0x01, 0x00, 0x00, 0x00, 
	0x10, 0x00, 0x00, 0x00, 0xa0, 0xfd, 0xff, 0xff, 0x70, 0x00, 0x00, 0x00, 
	0x08, 0x00, 0x00, 0x00, 0x1c, 0x00, 0x00, 0x00, 0x14, 0x00, 0x00, 0x00, 
	0x04, 0x00, 0x00, 0x00, 0x02, 0x00, 0x00, 0x00, 0xff, 0xff, 0xff, 0xff, 
	0x08, 0x00, 0x00, 0x00, 0x8c, 0xfd, 0xff, 0xff, 0x46, 0x00, 0x00, 0x00, 
	0x73, 0x65, 0x71, 0x75, 0x65, 0x6e, 0x74, 0x69, 0x61, 0x6c, 0x2f, 0x64, 
	0x65, 0x6e, 0x73, 0x65, 0x2f, 0x4d, 0x61, 0x74, 0x4d, 0x75, 0x6c, 0x3b, 
	0x73, 0x65, 0x71, 0x75, 0x65, 0x6e, 0x74, 0x69, 0x61, 0x6c, 0x2f, 0x64, 
	0x65, 0x6e, 0x73, 0x65, 0x2f, 0x52, 0x65, 0x6c, 0x75, 0x3b, 0x73, 0x65, 
	0x71, 0x75, 0x65, 0x6e, 0x74, 0x69, 0x61, 0x6c, 0x2f, 0x64, 0x65, 0x6e, 
	0x73, 0x65, 0x2f, 0x42, 0x69, 0x61, 0x73, 0x41, 0x64, 0x64, 0x00, 0x00, 
	0x02, 0x00, 0x00, 0x00, 0x01, 0x00, 0x00, 0x00, 0x08, 0x00, 0x00, 0x00, 
	0x86, 0xfe, 0xff, 0xff, 0x34, 0x00, 0x00, 0x00, 0x07, 0x00, 0x00, 0x00, 
	0x0c, 0x00, 0x00, 0x00, 0x04, 0x00, 0x00, 0x00, 0xfc, 0xfd, 0xff, 0xff, 
	0x19, 0x00, 0x00, 0x00, 0x73, 0x65, 0x71, 0x75, 0x65, 0x6e, 0x74, 0x69, 
	0x61, 0x6c, 0x2f, 0x64, 0x65, 0x6e, 0x73, 0x65, 0x5f, 0x32, 0x2f, 0x4d, 
	0x61, 0x74, 0x4d, 0x75, 0x6c, 0x00, 0x00, 0x00, 0x02, 0x00, 0x00, 0x00, 
	0x01, 0x00, 0x00, 0x00, 0x10, 0x00, 0x00, 0x00, 0xca, 0xfe, 0xff, 0xff, 
	0x34, 0x00, 0x00, 0x00, 0x06, 0x00, 0x00, 0x00, 0x0c, 0x00, 0x00, 0x00, 
	0x04, 0x00, 0x00, 0x00, 0x40, 0xfe, 0xff, 0xff, 0x19, 0x00, 0x00, 0x00, 
	0x73, 0x65, 0x71, 0x75, 0x65, 0x6e, 0x74, 0x69, 0x61, 0x6c, 0x2f, 0x64, 
	0x65, 0x6e, 0x73, 0x65, 0x5f, 0x31, 0x2f, 0x4d, 0x61, 0x74, 0x4d, 0x75, 
	0x6c, 0x00, 0x00, 0x00, 0x02, 0x00, 0x00, 0x00, 0x10, 0x00, 0x00, 0x00, 
	0x08, 0x00, 0x00, 0x00, 0x0e, 0xff, 0xff, 0xff, 0x30, 0x00, 0x00, 0x00, 
	0x05, 0x00, 0x00, 0x00, 0x0c, 0x00, 0x00, 0x00, 0x04, 0x00, 0x00, 0x00, 
	0x84, 0xfe, 0xff, 0xff, 0x17, 0x00, 0x00, 0x00, 0x73, 0x65, 0x71, 0x75, 
	0x65, 0x6e, 0x74, 0x69, 0x61, 0x6c, 0x2f, 0x64, 0x65, 0x6e, 0x73, 0x65, 
	0x2f, 0x4d, 0x61, 0x74, 0x4d, 0x75, 0x6c, 0x00, 0x02, 0x00, 0x00, 0x00, 
	0x08, 0x00, 0x00, 0x00, 0x01, 0x00, 0x00, 0x00, 0x4e, 0xff, 0xff, 0xff, 
	0x4c, 0x00, 0x00, 0x00, 0x04, 0x00, 0x00, 0x00, 0x0c, 0x00, 0x00, 0x00, 
	0x04, 0x00, 0x00, 0x00, 0xc4, 0xfe, 0xff, 0xff, 0x32, 0x00, 0x00, 0x00, 
	0x73, 0x65, 0x71, 0x75, 0x65, 0x6e, 0x74, 0x69, 0x61, 0x6c, 0x2f, 0x64, 
	0x65, 0x6e, 0x73, 0x65, 0x5f, 0x32, 0x2f, 0x42, 0x69, 0x61, 0x73, 0x41, 
	0x64, 0x64, 0x2f, 0x52, 0x65, 0x61, 0x64, 0x56, 0x61, 0x72, 0x69, 0x61, 
	0x62, 0x6c, 0x65, 0x4f, 0x70, 0x2f, 0x72, 0x65, 0x73, 0x6f, 0x75, 0x72, 
	0x63, 0x65, 0x00, 0x00, 0x01, 0x00, 0x00, 0x00, 0x01, 0x00, 0x00, 0x00, 
	0xa6, 0xff, 0xff, 0xff, 0x4c, 0x00, 0x00, 0x00, 0x03, 0x00, 0x00, 0x00, 
	0x0c, 0x00, 0x00, 0x00, 0x04, 0x00, 0x00, 0x00, 0x1c, 0xff, 0xff, 0xff, 
	0x32, 0x00, 0x00, 0x00, 0x73, 0x65, 0x71, 0x75, 0x65, 0x6e, 0x74, 0x69, 
	0x61, 0x6c, 0x2f, 0x64, 0x65, 0x6e, 0x73, 0x65, 0x5f, 0x31, 0x2f, 0x42, 
	0x69, 0x61, 0x73, 0x41, 0x64, 0x64, 0x2f, 0x52, 0x65, 0x61, 0x64, 0x56, 
	0x61, 0x72, 0x69, 0x61, 0x62, 0x6c, 0x65, 0x4f, 0x70, 0x2f, 0x72, 0x65, 
	0x73, 0x6f, 0x75, 0x72, 0x63, 0x65, 0x00, 0x00, 0x01, 0x00, 0x00, 0x00, 
	0x10, 0x00, 0x00, 0x00, 0x00, 0x00, 0x0e, 0x00, 0x14, 0x00, 0x04, 0x00, 
	0x00, 0x00, 0x08, 0x00, 0x0c, 0x00, 0x10, 0x00, 0x0e, 0x00, 0x00, 0x00, 
	0x4c, 0x00, 0x00, 0x00, 0x02, 0x00, 0x00, 0x00, 0x0c, 0x00, 0x00, 0x00, 
	0x04, 0x00, 0x00, 0x00, 0x84, 0xff, 0xff, 0xff, 0x30, 0x00, 0x00, 0x00, 
	0x73, 0x65, 0x71, 0x75, 0x65, 0x6e, 0x74, 0x69, 0x61, 0x6c, 0x2f, 0x64, 
	0x65, 0x6e, 0x73, 0x65, 0x2f, 0x42, 0x69, 0x61, 0x73, 0x41, 0x64, 0x64, 
	0x2f, 0x52, 0x65, 0x61, 0x64, 0x56, 0x61, 0x72, 0x69, 0x61, 0x62, 0x6c, 
	0x65, 0x4f, 0x70, 0x2f, 0x72, 0x65, 0x73, 0x6f, 0x75, 0x72, 0x63, 0x65, 
	0x00, 0x00, 0x00, 0x00, 0x01, 0x00, 0x00, 0x00, 0x08, 0x00, 0x00, 0x00, 
	0x14, 0x00, 0x18, 0x00, 0x04, 0x00, 0x00, 0x00, 0x08, 0x00, 0x0c, 0x00, 
	0x10, 0x00, 0x00, 0x00, 0x00, 0x00, 0x14, 0x00, 0x14, 0x00, 0x00, 0x00, 
	0x38, 0x00, 0x00, 0x00, 0x01, 0x00, 0x00, 0x00, 0x20, 0x00, 0x00, 0x00, 
	0x18, 0x00, 0x00, 0x00, 0x04, 0x00, 0x00, 0x00, 0x02, 0x00, 0x00, 0x00, 
	0xff, 0xff, 0xff, 0xff, 0x01, 0x00, 0x00, 0x00, 0x04, 0x00, 0x04, 0x00, 
	0x04, 0x00, 0x00, 0x00, 0x0b, 0x00, 0x00, 0x00, 0x64, 0x65, 0x6e, 0x73, 
	0x65, 0x5f, 0x69, 0x6e, 0x70, 0x75, 0x74, 0x00, 0x02, 0x00, 0x00, 0x00, 
	0x01, 0x00, 0x00, 0x00, 0x01, 0x00, 0x00, 0x00, 0x01, 0x00, 0x00, 0x00, 
	0x10, 0x00, 0x00, 0x00, 0x0c, 0x00, 0x10, 0x00, 0x07, 0x00, 0x00, 0x00, 
	0x08, 0x00, 0x0c, 0x00, 0x0c, 0x00, 0x00, 0x00, 0x00, 0x00, 0x00, 0x09, 
	0x09, 0x00, 0x00, 0x00, 0x09, 0x00, 0x00, 0x00
};
const int model_data_len = 2384;